07
B2
CF
08
09
28
C2
02
BD
8D
FC
B4
6C
B6
C9
E7
FB
1F
C6
CC
E6
DD
25
D9
81
03
4B
5C
B4
FC
64
15
02
10
60
F2
58
18
9A
2C
D6
0F
D9
27
1F
0E
CB
D7
F3
C6
42
21
50
24
B6
E3
05
07
ED
DB
19
F0
53
00
0F
9D
F6
A9
08
56
12
DD
12
46
FB
41
B9
30
DF
12
DB
0B
20
34
03
E8
D7
3B
12
29
C0
45
FB
CB
0B
C0
26
27
9A
AE
E1
D4
F3
22
E7
DA
24
FF
FF
C9
F4
2F
1B
EE
08
16
3F
DC
B2
3E
F8
87
DF
ED
DC
01
C7
E9