19
0B
E0
03
28
CF
27
0A
0B
F7
30
DE
F3
07
08
00
00
08
09
02
EE
0D
0B
02
E9
08
16
29
E0
07
07
4A
1B
E0
0B
09
D4
F7
2F
07
F4
F3
19
16
F8
DF
FB
F3
EC
09
E6
F4
DC
16
F3
F3
F6
FB
0C
21
DE
EF
E2
E7
18
E1
02
E3
26
F5
1E
26
07
DC
FE
09
EC
FC
DF
DA
CF
D8
DF
02
DF
10
F0
FD
D8
25
FF
05
E4
F7
C3
E1
F6
02
12
21
E1
DC
E7
F8
00
06
1E
14
EF
DE
B9
06
01
EC
D8
F4
C4
FC
04
09
F2
10
DE
B9
D7
25
1F
05
18
08
24
F6
FF
08
25
1E
EB
0C
EB
0F
50
49
F4
FE
EB
F3
FD
EC
16
1F
EF
02
1E
0B
3E
FA
26
F1
11
1B
E3
F3
EC
FB
FC
FA
04
05
00
0C
1E
21
0C
EF
FB
24
F4
04
47
DE
CE
DB
19
FE
D9
C1
F6
FF
E6
DE
0F
09
0C
06
2D
EA
FF
06
18
16
FB
DF
F8
12
1F
0E
E5
DA
0A
F2
F0
10
31
20
0D
F9
08
F3
D9
25
14
E9
1A
F1
F6
07
5D
D7
27
03
EC
05
06
EE
FA
1A
15
37
FE
13
27
2C
1C
10
0D
08
FD
FB
D5
29
16
1B
15
15
DE
06
0F
F3
19
43
3A
15
EF
F7
02
D6
10
D8
EC
2F
FE
44
04
08
47
03
30
01
05
38
0E
C5
1A
11
1F
F9
FC
BC
F7
FD
18
CE
15
34
E5
F6
2B
12
C6
F4
18
22
13
01
1A
3E
E2
FA
0D
03
0C
F7
F8
05
FB
F2
DE
02
11
36
2A
2E
0D
02
0F
14
ED
12
D7
37
08
FD
E6
1C
E3
FB
FF
0C
F5
C5
FF
D5
CD
D6
FB
C5
F2
3A
11
0C
EA
06
03
1F
BC
C6
E6
18
0B
D9
23
12
FC
EC
EE
B0
F1
0A
EA
DA
0C
07
1A
EE
E3
EA
D6
0A
F1
08
05
19
0E
0B
26
0E
E9
28
0C
0D
22
FE
09
23
F1
CF
DE
F4
E9
F3
3C
E3
F4
09
54
EC
0D
F0
2E
E2
D6
F7
BD
FE
02
28
EB
0C
03
FA
1B
FA
F6
FF
08
F9
E3
06
F5
19
F9
13
F0
19
2F
10
1D
11
D6
23
E7
D4
0A
2B
07
12
F8
C5
D5
06
D4
DD
FE
06
C4
FD
CD
12
E6
01
17
F8
16
0F
D7
F9
16
26
ED
20
E5
CE
05
04
0B
04
0B
2C
F3
F9
20
1F
E4
1C
09
F9
23
15
FF
F7
30
FA
F2
DE
FD
01
0D
EF
FC
10
22
0E
EB
EB
BC
0F
14
FB
15
1D
FD
55
E5
E0
C8
33
3E
31
EC
ED
C0
12
1B
D9
E7
DF
DE
E0
25
FD
ED
FF
E5
10
0B
02
23
F4
11
11
CB
D2
11
2E
05
1E
2C
EB
1B
05
03
DE
F7
E7
0F
DE
F1
34
FC
E3
D1
29
00
F9
FD
01
15
B4
22
0D
EC
FC
EB
DC
47
E9
21
E7
1E
0A
BF
CD
2A
17
D5
18
28
DB
D3
47
F4
26
0B
FD
0A
C9
D0
D3
E0
F5
CC
E9
DF
00
FB
04
ED
E6
26
EA
F5
EE
04
05
19
DA
BC
07
FF
23
03
13
2C
D9
3A
D4
1A
EA
F8
02
D5
EF
19
06
08
E1
09
29
54
29
D4
04
18
3E
31
0D
E2
17
02
0C
FB
29
DD
1C
01
0E
1A
13
F3
20
09
F4
D9
07
0A
C8
F9
FB
13
07
13
34
EF
07
1C
FD
EA
14
22
E1
F2
FE
D3
09
DF
F2
D8
35
05
40
F5
ED
12
EC
0A
FB
F6
30
2D
EA
E8
24
F0
13
04
ED
04
3D
FB
16
F3
02
0B
F5
FF
D1
03
DC
ED
0A
FA
F9
06
26
EC
F0
F5
27
F4
02
C5
25
D7
19
33
E6
EC
EC
EC
00
F7
12
FE
F2
00
E3
13
13
D0
1A
F0
F2
17
1A
FB
E0
2A
F2
06
00
B4
EE
10
30
18
FE
FD
11
E1
E8
E7
DE
1A
05
16
09
F2
F1
1E
03
FB
E6
F7
F6
04
1E
E2
04
10
EC
29
E0
FA
03
FD
D6
15
E3
18
07
E1
FC
2C
0A
E7
E2
05
E9
05
33
E6
F3
28
D5
E5
DE
3F
05
FE
FF
DF
07
F5
FE
EF
C4
FF
19
F8
1E
13
06
E4
03
29
D6
EE
04
1B
D9
30
1F
05
D7
05
43
1B
09
29
FE
0C
20
DF
01
0E
F2
EC
FF
26
3F
E5
F2
F8
EA
23
FD
E5
FB
E1
F1
10
EF
1C
05
FD
F2
E7
DA
E3
C0
B4
0B
E7
49
0A
DA
10
0A
4B
0B
DB
FA
F6
3D
E9
23
FC
FA
3B
49
D5
28
D1
F8
11
F3
F4
DE
10
EA
C2
EE
1A
EB
20
C0
13
FC
16
01
EE
D7
E5
DC
05
1F
0C
FC
E8
07
10
03
C9
24
2F
CD
F0
E9
DD
F4
10
F7
EA
EC
3E
E7
2B
EE
F4
E0
FB
0E
05
F0
02
08
02
EA
1C
05
F7
0A
0D
FD
17
03
16
22
28
48
FA
12
23
29
08
EB
F1
EA
E2
E1
FD
1E
DF
E7
28
F8
E5
00
DD
F3
C5
12
12
F5
26
E0
E4
24
EC
02
FA
EB
EE
10
F3
E3
E9
00
B8
3B
ED
EA
FE
12
C9
C3
FD
47
06
E4
06
1B
E7
0C
23
E2
ED
FC
10
0D
0B
1B
19
FF
01
F1
28
E2
F2
37
07
0B
22
D7
03
F3
39
2A
E0
14
19
0A
FF
F8
11
EE
14
1B
EC
04
1F
2D
07
17
16
06
E9
11
0C
06
FB
05
11
F9
D3
F1
D0
26
DB
FF
F7
41
16
1B
DC
01
15
F0
EA
E8
DE
17
12
DF
DC
F8
F4
E2
24
F4
E3
0B
10
E4
E7
03
FC
05
00
EC
B3
E8
EB
D0
1A
E5
D3
ED
EA
0A
1C
F4
F5
F3
E8
F9
F3
09
F8
01
09
E1
23
00
2C
EA
C6
3B
34
1E
17
C7
F2
20
24
11
36
D6
12
E2
F6
F9
06
1B
EE
05
CE
D2
FA
25
FD
09
EB
19
F2
E1
DC
E1
C5
FB
E6
D4
15
01
A3
DB
DE
E2
F8
ED
15
01
0C
06
DF
12
FD
F7
DB
D6
F4
F7
20
17
18
31
DA
26
F7
00
15
03
E5
26
05
0A
DE
2A
24
27
DC
EF
EB
C4
FC
F6
FA
29
14
E9
28
D4
1B
38
06
32
D7
0B
3F
FA
13
C8
EA
03
F5
51
D3
ED
E4
FF
E2
01
06
04
12
2E
F5
F6
F1
0D
D0
E1
FF
13
DB
EC
F3
DE
D5
E2
EC
D9
FE
E1
E5
1E
DA
FA
E7
ED
ED
EB
EE
DD
FE
19
F5
DE
B1
FC
5F
0F
3E
00
F3
F4
0A
04
E9
CF
15
EA
F6
E6
15
E6
21
01
13
16
1F
29
E6
ED
F8
1D
04
04
23
FA
36
EC
2A
12
10
F2
34
22
03
E2
10
21
F3
E9
F7
24
03
F0
1A
16
1C
25
02
F0
08
C3
11
1E
FA
EB
0A
17
07
F9
F9
BF
37
13
0C
FD
11
2E
3E
F7
F7
0B
1B
1A
11
32
CD
EE
0D
27
EE
08
0A
22
0F
FD
23
F4
0E
01
F4
FF
F2
48
27
EB
03
1B
09
06
26
14
BB
FE
36
05
FB
17
EF
02
FC
F8
32
0F
15
E3
FC
23
1F
1B
36
D1
25
0D
DB
F4
F0
E8
FE
FF
08
0F
18
09
06
17
FE
D9
F1
1A
ED
D3
1A
10
CD
06
06
41
E9
00
04
10
F9
18
E7
27
E5
0C
03
10
03
01
C8
0A
09
F6
ED
B1
C9
DA
FB
0D
FB
FB
25
E3
F3
CF
21
07
F9
E8
E7
15
E9
F6
EF
FD
29
0C
02
10
1F
F1
1E
E7
F8
DE
F1
18
2F
DC
DE
E0
DD
17
00
15
EF
F9
17
F6
FE
0C
FF
18
0D
0B
0D
0D
F3
FF
F7
00
15
28
24
F7
C3
EC
CF
00
FA
18
F9
3A
0D
C6
D5
F7
05
CE
0E
FB
EC
12
E9
4E
EB
29
FD
E1
05
FE
F2
FC
2A
FF
E7
14
DE
1A
FB
32
F2
07
10
E9
20
FC
5E
EE
E4
3F
31
22
15
D1
EE
E9
19
DE
DF
B2
FE
F6
01
0C
F9
19
F9
FF
1E
F7
F7
0F
F3
07
17
EB
0C
01
D9
98
FE
DF
E6
0C
E7
12
F8
10
1C
08
F3
09
35
F5
06
FE
1C
CC
07
F1
C9
1C
E0
F8
04
12
E2
15
08
C6
DE
0E
D9
DF
ED
0F
1B
09
0F
FF
F4
12
F0
11
14
16
06
3B
EE
F8
05
F0
0C
CE
E4
F3
10
F9
F2
DE
E4
E3
FA
08
FD
2E
FD
FA
20
F2
FA
ED
DF
DE
39
02
08
28
1E
25
18
EC
1E
EE
BA
30
0C
2D
F6
10
1A
DF
2D
17
FC
F9
FB
1D
23
1C
11
17
06
07
FB
10
16
09
FF
E3
14
04
E7
B8
EB
F3
34
DB
F8
FB
F0
DC
32
04
1B
05
21
DB
ED
E7
00
FF
10
1E
16
F3
0F
EB
E0
F8
E6
33
E1
10
12
34
2D
F6
EF
E2
FF
0D
D8
2B
30
0C
B3
D4
18
0B
05
03
EF
DF
F2
28
DC
16
3B
F7
EC
FB
FB
0C
09
F2
E1
F0
FE
1E
1F
D1
2C
E3
29
CA
D6
FA
20
1F
F5
08
28
02
1D
CC
10
E1
D9
1B
F8
1C
17
40
21
F7
EF
26
FC
D3
FF
2C
02
17
24
F0
FE
E8
DE
C9
D7
E5
19
17
0A
16
EB
0E
0D
00
F5
D6
D2
FB
FF
FF
E5
F0
D8
15
CD
DB
05
00
FF
EE
05
F8
2E
35
EC
FC
ED
E2
18
EA
E8
FF
E1
0C
02
E0
0F
0D
F9
DA
E8
18
F4
E0
D0
EB
E8
13
10
01
FD
20
08
18
56
E0
EE
2D
26
FF
EC
0A
F9
05
F3
C8
F3
CF
0F
06
DC
E2
0E
36
0B
F2
09
21
F7
EE
E8
05
07
01
EB
04
D6
30
D6
FD
24
4B
25
18
D3
C9
E6
FC
DC
F2
E6
17
04
FA
12
FC
0D
FE
0B
2C
FF
03
04
20
22
DE
10
36
FD
F5
0F
D9
06
F7
FC
F6
F0
07
0C
1D
03
0B
07
F0
05
EF
EC
0B
D5
F7
EC
DF
D8
01
11
2C
04
FD
05
ED
E5
26
C3
0B
D2
E3
2B
F5
E6
4B
1D
E5
04
04
1F
12
45
17
DE
FF
F9
F4
D6
EB
27
06
E1
FF
19
C0
0A
E3
FF
03
FF
1A
0A
12
11
F1
F7
E2
FA
11
01
26
1B
1D
02
DC
10
0B
09
E0
E6
26
E0
E4
FD
FE
20
00
0D
0C
00
E5
D8
D9
F4
F5
07
00
16
F7
34
E8
C3
1C
11
42
E0
16
31
FA
0A
E4
1D
15
F8
FB
2E
07
EC
E9
F8
F7
02
DB
01
16
F6
33
00
BE
DA
08
FC
2F
13
E8
C7
F6
07
00
C9
FB
FA
10
CC
FE
ED
11
D7
10
04
12
11
08
46
01
1A
11
07
04
1B
02
24
02
2B
14
03
0E
E2
0D
16
0D
0C
2D
E6
21
2D
E1
FB
FC
CA
DD
D2
E7
FC
F9
2D
E6
DE
0F
FD
F6
FC
C8
EA
F1
02
14
1D
0D
F5
E7
EF
E7
FE
CE
1B
D2
DA
EB
D1
E5
30
04
15
EA
D8
25
28
E4
E7
02
EE
D7
07
D0
F6
00
11
E8
3C
2F
2A
0C
E6
F5
20
F2
EB
FE
29
34
BC
EF
0B
18
E3
FE
F0
20
05
37
DE
E7
F5
EF
F9
FD
0B
FF
0B
E4
DB
18
39
EC
02
F7
E8
D7
F0
FF
14
0D
FC
A8
D4
2C
03
FE
1C
D8
07
12
05
E7
23
00
1B
30
1F
38
E1
FC
F3
03
F3
E0
05
FA
F7
0A
02
E2
3F
F6
F2
FB
08
15
CF
FF
F3
01
F1
EE
17
12
0D
E7
1C
1C
06
0C
EA
CC
0C
F7
0C
F2
E1
EB
08
F8
FD
FC
03
FC
00
E5
0F
F5
F8
EB
EE
FC
58
D8
E0
00
B1
D7
E0
DB
EC
1B
0B
F7
FA
EF
F3
C0
21
ED
10
FF
1A
25
07
01
03
DE
FE
34
F5
F8
2C
D1
00
DD
D6
0B
F6
01
DD
F4
11
EE
0F
05
07
20
FD
02
CF
CD
FB
08
FA
09
E9
E9
FE
FB
21
07
1B
FB
0B
07
EF
11
E0
02
0F
12
ED
24
E4
05
D4
D1
2A
11
00
E9
FF
F4
D2
F0
FF
28
F4
EE
2F
0F
09
C6
04
0E
02
F1
0F
02
0B
0A
E6
FE
F8
EB
0F
FC
F9
F7
FC
F4
EA
01
FA
01
11
06
43
F4
F7
09
F4
05
EF
31
0C
FC
EA
00
DF
0C
F3
00
1E
2F
4A
16
F3
0C
EF
E6
E4
2F
4B
F3
13
2F
F3
10
0D
FE
D2
F1
F4
0C
E3
F3
E4
FA
03
F4
F8
1E
1E
09
06
1F
E7
14
FF
F3
F3
EC
21
F2
DD
EA
02
F4
E9
1F
EF
F6
CD
FD
16
C5
01
F3
0D
E8
E6
2E
EA
09
F1
FC
F8
DA
F1
0F
19
1C
EF
0E
21
F2
FC
2B
E5
D7
18
05
17
E5
FD
46
44
F2
CD
00
F4
D0
F5
E0
1D
E7
E0
E5
D4
1C
F4
D2
1A
EE
22
FF
03
E6
A9
E7
F2
23
DF
1B
33
DF
18
FC
35
FA
FE
06
1D
EC
12
02
00
0A
DF
14
D2
18
33
F5
E4
DC
F5
FE
0F
4D
1A
F7
1B
E6
03
F1
E1
0E
06
1F
28
0A
45
E7
05
13
06
29
F2
EA
16
DD
2A
05
FF
F9
DF
0B
19
F5
F6
00
F3
FA
02
0F
AD
CA
14
DC
E2
BE
CF
08
03
F9
09
F7
18
11
05
02
37
2B
2A
24
F2
F6
FB
E9
2C
F1
F6
08
E1
F5
1D
FF
F5
FC
E7
D1
07
01
C3
EC
11
29
F8
15
DF
D1
D9
FD
D1
C1
F0
E6
E3
DC
0F
CA
08
F0
FB
1F
C9
EE
FB
1F
F4
F4
07
2F
36
0A
1A
EF
33
2D
F5
EF
FC
15
E4
09
00
17
0B
07
F5
F9
EC
E8
F7
02
DA
CA
F4
07
0A
17
3A
0B
F1
04
1E
3C
E8
10
0D
15
0A
2A
25
EE
FD
D2
F4
DF
F6
22
1F
22
FA
02
10
E6
05
0B
DD
FF
DC
16
01
E9
FC
BC
00
2D
F0
F2
21
26
E8
F9
FC
24
1E
13
23
20
1A
F0
ED
F0
17
F4
0D
E5
00
EF
F7
F2
E9
3A
26
F5
10
E7
E8
D9
E3
DA
FC
30
05
08
EA
31
00
EE
01
0A
00
0B
EB
34
F0
23
04
EC
B8
FC
EF
0F
0C
EA
D6
03
F8
18
E3
20
0D
11
0F
29
27
28
0C
E4
D1
ED
2E
1F
0A
0F
EF
EB
0A
F8
16
29
E3
1A
D5
F7
EA
F6
EC
11
E4
10
32
12
13
FC
FB
F2
D2
23
D9
DD
E3
CC
F7
FA
D5
E9
FB
16
1F
FC
05
4B
DD
EF
FF
0F
1F
00
24
22
27
F8
F8
1B
2B
0C
00
F3
E3
5A
F4
DC
0F
3D
EB
3A
F0
1B
32
0F
E6
E5
0B
E8
F5
28
F5
FE
01
FF
17
5E
0C
F9
EF
ED
19
02
21
3F
2C
08
EC
DC
F9
DA
F3
EF
FA
17
DA
05
DF
DA
2C
12
21
0F
C5
04
F2
FB
E8
D7
3D
3A
FF
21
1E
2C
EF
0D
0E
E9
E1
1F
D7
F1
F0
F9
02
11
05
0E
08
19
17
1B
07
FD
0E
F2
21
E3
17
13
2C
02
1A
2A
29
14
3D
0D
0B
0E
E2
03
F2
F8
01
F5
4C
F7
02
23
0C
07
05
5E
F8
F8
D7
EA
0F
0E
F4
02
FF
13
F4
0D
F3
20
0B
08
0D
F6
0A
14
F9
02
FE
38
EB
E0
4C
19
0C
0E
17
20
13
F3
1B
35
F1
2A
32
2C
E2
29
F4
FF
1C
E7
DC
0A
03
DD
08
2E
0E
0C
DC
36
26
F7
D7
F0
1E
51
CB
EE
E6
FE
ED
DC
07
2F
06
0A
CA
0F
C9
37
C2
16
15
F8
FD
00
F9
34
2B
29
17
1D
DC
04
F3
C5
DF
F2
40
15
E1
F2
10
F8
04
ED
EC
09
BC
28
15
E9
CE
DA
33
18
11
1F
F9
FB
14
F3
FA
2C
0B
24
FB
F8
EC
F6
28
08
CB
E3
22
07
14
F0
AF
01
0A
D1
EE
B3
3A
01
0E
18
F1
1A
EA
09
EE
05
D7
F1
0D
02
17
10
EA
E9
FB
02
26
07
D9
E9
CC
10
D6
28
D1
F5
ED
B5
F1
30
E6
FA
E5
19
0A
0C
0A
FA
05
1F
1C
01
04
12
FD
E5
D6
DE
E6
12
15
12
C4
DE
F2
17
04
E0
3E
E5
24
E9
FB
11
02
F6
E4
EB
04
09
10
0E
55
02
F8
DB
22
0C
D3
DE
F4
FF
0C
E6
C0
00
F6
13
0A
2F
04
D7
05
C7
FE
01
01
F2
D7
0E
08
F9
15
EC
0C
17
F8
30
04
14
00
23
11
DF
CF
14
EA
FB
11
F7
E3
DA
F4
09
0D
07
01
C0
EE
DD
F4
0B
17
09
1B
D4
24
F5
06
14
FE
EE
00
0C
01
1F
DA
BE
21
4B
F6
C1
F0
E3
F4
EE
CB
DF
D7
EF
F6
1F
28
F1
EB
E4
13
08
23
2B
09
06
D4
10
EC
E3
F4
E5
FC
DC
F3
EF
DE
F6
F4
1C
00
01
00
DA
1D
05
FA
E2
E9
DD
1E
0F
11
D4
05
EF
11
F8
16
D9
C5
F5
F9
0E
09
16
1B
FD
EB
E7
16
10
02
1E
1B
38
E8
EB
0D
FE
DB
EA
0F
FD
BC
08
07
07
0E
14
F7
F0
0C
28
DB
F3
F1
26
1C
0B
DD
C8
F2
F2
17
37
1D
08
E4
F4
15
07
F8
E2
06
E6
3F
EC
2B
ED
10
07
F9
3A
F0
12
E6
2F
16
F7
2C
D8
FE
2A
03
1F
F2
DF
EA
E1
EA
DB
17
DC
11
F7
DD
E7
1E
FD
03
2E
EF
37
12
2F
D2
3D
15
23
F6
05
2A
E4
F3
E9
22
CA
12
17
DB
0B
24
FA
E3
11
11
DD
12
13
D6
ED
2A
13
D8
2E
0B
E4
F6
27
F1
2A
01
35
DD
0B
12
2A
2A
ED
C1
27
04
28
C1
14
03
09
03
F4
08
FB
13
1E
13
2A
E4
E8
DF
19
1F
E9
18
32
34
FD
13
1D
0D
F4
13
20
06
10
F5
F5
F0
1D
F1
2C
3C
08
21
05
25
26
ED
1D
EE
31
12
0E
FB
02
E6
11
34
0A
DF
FF
0E
2E
26
F4
30
09
E5
29
F6
EB
F2
C2
F8
19
0E
19
ED
03
E3
FC
20
03
14
05
E1
1B
F7
FF
0A
F0
21
07
05
F0
F8
FF
E9
07
E9
F8
F6
10
F7
F5
10
1B
F1
2C
14
04
26
22
01
1C
06
01
12
12
14
1B
F6
39
13
0A
32
18
18
F3
12
02
F8
D7
F4
FF
F9
0C
FD
F1
D8
28
1A
E9
0C
E8
F0
FC
ED
02
0E
15
F8
21
13
EF
07
FA
17
27
15
01
1B
13
21
FC
D1
02
FA
0F
0D
32
FD
1C
15
27
F6
16
F0
E2
C8
EF
14
F5
00
04
C6
FA
02
22
03
0A
35
0C
0C
0C
20
00
41
ED
14
FF
0B
05
FB
21
1B
1B
FC
D2
12
06
0E
E9
02
3A
E3
1A
12
02
05
D9
C6
F6
03
E3
07
12
17
DB
CF
FA
17
EE
25
D6
F9
0A
F8
0F
FA
EF
F1
0F
11
DB
05
D4
E0
21
0E
13
E4
03
FC
18
0D
EF
FE
F4
2A
2B
E2
F2
0A
FE
33
F4
22
E8
0D
4A
EB
E4
F4
1F
0D
D3
DC
EA
E7
1D
DE
FD
45
1D
DC
17
08
05
3B
C0
12
1F
C5
F5
F1
F3
ED
D6
E9
0B
FC
1A
0A
D2
19
21
36
0E
D9
EF
0E
F0
08
F0
24
E6
01
ED
F9
FC
07
F4
1D
0D
06
3E
18
21
08
1E
DB
12
01
02
1C
3F
15
E2
E9
3B
05
BC
2E
24
0C
F0
09
1E
0B
DB
04
F3
F2
F1
F1
11
0C
0E
0A
06
21
07
09
DB
00
CE
1B
00
DB
18
0B
35
25
CB
2A
08
13
BC
2E
2E
DD
FC
2D
0E
01
05
D9
F7
0A
15
E9
4B
D4
10
0A
C0
09
EA
02
EF
01
F1
2C
F0
21
30
DC
FC
1D
22
08
1C
FE
0E
E5
1E
13
10
0B
07
F2
28
EB
E5
15
FB
1A
F5
2C
F8
F0
F6
09
FA
DD
F7
09
F7
1A
0D
F8
2E
03
D3
F1
E5
CB
EE
0E
21
D8
04
E7
0E
F0
EB
13
F3
21
02
4B
10
F6
17
0C
EA
EF
1D
E1
1D
D0
0A
11
E5
04
1E
FC
0A
03
DB
0A
FA
FA
FE
12
13
F0
1B
FB
13
F0
F1
2B
FE
08
FF
E4
07
42
25
F2
F0
EB
FF
24
15
D1
DA
DA
E6
DA
1D
E9
D9
E9
FA
DC
1B
FE
FD
30
0C
E1
BA
29
DA
F4
E1
E3
D7
25
FE
2D
DF
04
C4
38
F3
0D
03
16
F4
F1
02
31
1F
0B
1E
2C
05
1A
FA
09
3A
03
E9
07
01
D4
D3
10
D7
34
10
27
D9
D3
FE
01
F5
ED
EE
AB
E8
0F
FD
FD
3A
F0
2D
EE
16
EC
EA
0D
F5
F7
E4
D2
31
DA
F6
F8
15
0D
E7
CF
D8
DE
16
0B
DA
14
DF
D3
F7
F5
03
E3
15
F5
E2
E4
10
01
0B
FC
F3
14
0D
0F
C0
1C
E2
D4
04
DA
05
E4
00
12
22
15
DF
FA
20
F4
20
FC
19
FF
0D
50
DC
F7
34
CB
02
03
F6
10
E5
08
E5
1C
0D
F7
CC
D6
F6
10
FD
28
DE
E4
1C
ED
ED
17
1C
18
D5
35
F9
ED
D1
DB
F8
C5
2D
16
09
26
0F
0E
0B
29
E7
2E
F9
1A
0F
D7
D5
39
2A
15
F1
E0
FE
E5
F2
D9
2E
14
F8
12
26
21
23
EB
E1
1E
00
EC
F5
FB
E6
FC
02
09
E9
E1
CE
E0
11
D5
03
06
0F
E0
F8
EE
FA
DA
FD
2B
10
F6
19
12
09
04
18
3C
CF
F1
CF
11
01
17
C4
1C
18
3A
10
BE
08
01
02
EB
0C
0D
03
D6
FF
EB
10
F9
07
E9
F5
19
03
F3
CA
11
27
05
FF
F6
EA
E8
09
EF
E7
00
E9
0C
08
D8
10
0D
20
FD
E7
D9
FB
FE
E0
FC
E9
F4
E8
E4
FF
0A
20
F4
CB
EE
03
E4
26
0F
07
CB
14
E2
FC
FC
F3
D5
F9
F6
06
19
F7
E4
F3
15
F9
F0
D9
24
EA
32
1A
19
26
D3
F1
B7
D6
E9
F1
1D
FE
E4
DE
F9
F4
F9
EB
F8
EA
F6
BB
DC
D1
0C
F6
17
23
BB
0F
21
0B
0C
1C
12
15
1A
FE
0A
08
45
02
12
0D
24
0B
0F
07
10
18
DD
06
43
F8
FC
F1
0A
2E
08
E9
16
D9
C9
12
E7
10
F6
1D
01
E0
D7
F2
0E
F0
16
0A
DD
04
BB
0D
F4
08
32
06
FD
29
F8
0D
E8
0A
EC
ED
FE
E8
23
F8
23
1E
F0
03
0A
F2
16
0A
CB
C6
F3
D0
37
2E
DA
FA
09
FE
E6
0B
18
C9
FD
DC
15
0A
01
F5
1E
12
FB
08
FD
C7
DD
F2
3E
ED
06
0A
BC
EA
0B
14
FC
E4
FF
34
FA
0F
D0
EC
14
FA
10
0D
1C
0D
ED
F2
E9
11
F7
06
09
19
03
15
00
F0
F5
24
0F
23
CC
18
17
1C
E8
16
FD
02
25
E2
0D
DF
1C
F9
E3
20
14
F1
EE
EC
17
35
D9
10
FA
15
37
0A
F9
DD
F8
06
F0
09
F5
F4
F9
0B
DF
34
08
06
08
18
15
F9
0D
C1
F5
D2
03
12
F9
FA
07
1A
28
1D
F1
E3
13
DC
0B
ED
24
16
FB
1F
0B
34
04
24
DD
E1
F4
E3
EE
D1
D5
F5
E6
EE
02
DC
EE
F6
E9
FF
10
ED
19
1F
FF
06
01
07
E6
FA
21
1A
3B
F1
11
05
F2
29
12
27
FB
0E
19
E3
11
F5
F5
12
14
11
2F
D5
33
FD
EC
C7
0F
E2
F3
E9
D2
01
FC
F0
01
F0
10
26
09
14
EC
ED
06
38
DC
F3
02
E3
07
FE
16
E9
AA
1C
11
02
E2
F5
EC
BC
EE
EE
F1
21
10
F1
D7
C1
05
E6
B8
2A
D3
F6
E9
13
EF
0F
FF
0A
4C
F5
06
CE
1F
F4
EA
14
F8
08
03
14
1C
F5
1C
FB
1E
FD
E4
D5
E7
CF
EF
D5
CE
DF
DA
F0
B4
DC
E1
31
F5
F9
14
E6
E1
0F
00
0C
F4
4A
37
E7
C2
EB
C1
D7
1A
0A
E0
F0
CC
EC
E5
CE
11
D8
D7
1B
2B
FC
04
0F
0E
11
24
03
E9
DF
03
04
14
2E
03
F3
11
0D
EA
DA
1B
07
33
0C
AA
06
0A
E3
C7
FE
D4
17
1A
F3
07
03
D5
0E
D3
0B
F6
14
00
ED
E0
02
26
01
03
F4
E7
0B
21
F2
F0
E7
E1
F2
2F
00
01
F6
05
E0
0E
FC
09
16
2A
F4
E4
01
F6
05
F6
EE
E2
0C
F0
DF
1C
31
36
09
DC
05
0C
1C
1D
D1
F0
E7
22
F4
1B
E5
F4
02
26
FC
08
0A
FC
06
EA
1B
0C
D8
22
07
D8
FC
1A
28
CA
C8
D0
05
09
00
05
CC
DA
0C
23
0A
DF
F7
20
F5
02
D5
F2
D6
FA
02
DD
E9
F9
02
0F
01
D0
CB
DC
0F
1C
FF
E3
07
F9
03
0C
20
25
E7
FC
D5
E1
40
23
02
1F
F6
EC
12
2A
F6
1A
EE
0F
F9
E3
FD
F3
FE
FE
D4
28
03
E6
10
08
EF
01
02
D3
F3
10
0D
EE
DE
02
F7
02
F5
06
23
F7
F2
E7
2B
39
0E
F9
F5
04
EC
2A
1A
E9
EA
ED
FC
18
11
BA
FD
D7
1B
19
CA
F4
DF
EB
04
04
E5
00
08
F3
D9
D8
2D
1D
EB
D9
0B
CE
05
20
3A
25
E4
F4
14
EF
0F
CF
F2
1C
04
1F
EC
DA
0C
15
07
FA
17
FB
F4
FF
E9
FA
CC
FA
AB
1F
04
14
E2
D5
30
01
03
1D
0B
1C
F3
06
24
2D
18
F7
05
E3
CE
ED
E4
ED
E2
1F
02
EE
F5
0F
B2
06
0D
15
07
0E
26
EA
E9
CE
25
14
DF
DD
F5
13
FF
0C
D3
E2
E6
20
1F
D6
30
E8
E7
FC
10
FA
07
05
11
05
E1
22
D3
F1
02
FF
02
EF
DF
EB
EF
E0
02
07
FB
30
23
E7
13
D7
2B
04
09
FE
2B
12
EC
CC
07
DB
FE
2D
12
C8
EB
F9
E7
37
F3
1C
F0
E8
DC
03
EE
E1
18
EC
C7
13
FA
16
27
F4
FB
E4
D3
1C
01
D4
17
06
E4
26
FF
0D
DD
0F
1B
EF
2B
07
28
22
B5
09
EB
F0
31
DA
F9
EB
05
DB
15
19
0F
08
FD
27
EB
BA
17
28
FF
DE
F9
01
04
04
1F
FF
0E
15
36
F1
E9
0F
E8
06
05
0D
E4
0C
1A
CE
DD
F5
D8
0D
D8
C5
DD
F5
0C
1F
F9
C3
DE
17
F5
D5
0E
E3
23
F2
F9
00
22
06
F6
C0
22
E6
F4
10
B2
F2
15
D6
EC
22
04
CD
C1
0C
13
ED
DF
06
DD
ED
1C
F1
D4
1F
14
1D
FF
18
1E
16
FD
0C
1E
F1
F6
05
0B
F0
FE
D7
2C
C9
3A
0E
F4
FC
F0
1E
E9
00
FA
16
FD
2D
FA
08
02
00
49
08
F5
BB
F2
2B
E5
06
EC
F8
07
1A
F7
EE
FA
1A
10
F0
ED
10
FF
EB
1D
F2
13
E8
C4
06
E9
C0
06
EB
20
10
F7
E8
DC
16
E9
21
EA
E9
02
07
25
F0
DC
27
10
F4
0F
0E
EA
12
23
26
06
FC
F1
E4
F3
1D
0C
17
13
EF
E1
00
E8
E3
28
10
03
EF
1C
15
02
FA
C3
D2
00
F4
1A
06
E5
DD
B8
E0
1A
F5
25
14
F8
BE
BA
C7
E9
F8
02
D4
F1
F1
C4
FF
F6
E7
05
08
FD
FA
F4
DD
1C
18
18
ED
0F
DE
E6
13
03
F0
FA
2B
21
D5
28
FF
2B
E6
F9
D4
03
14
F4
DF
12
26
FC
EE
F7
FE
29
1B
26
1D
D4
F9
24
0D
EA
F2
23
CC
E3
1B
26
EC
32
EB
06
E1
09
13
FC
02
D1
22
F1
FD
10
2D
27
D3
13
24
F9
FE
11
29
BC
00
F2
F6
F3
23
22
00
FF
EC
22
F9
ED
E2
1C
FE
F7
F9
E1
D8
D4
04
31
D6
9C
E8
E3
EA
1C
0D
FF
F4
DB
D2
AC
13
2E
E4
16
FD
E0
FC
D8
D7
00
06
06
3F
EC
E1
26
09
3A
FD
F5
31
1B
FF
E6
33
0D
DE
DC
D9
E0
F2
DC
CA
F2
0F
04
01
ED
EA
CB
E2
17
09
04
2E
03
1A
07
17
24
08
02
CD
26
15
1F
09
14
18
1E
1A
05
08
E7
06
12
06
F6
EF
FB
FA
34
16
C8
0B
29
02
32
FB
F1
F3
FA
06
F7
0D
FF
1B
09
01
F0
1B
19
EE
F7
07
29
16
03
13
EA
33
32
FE
E2
1A
1D
27
07
05
E6
01
F9
26
DF
F9
03
E2
11
E2
1C
16
40
F7
2A
19
F0
EA
AF
F4
F2
03
12
20
E4
14
17
24
E7
1A
F6
27
0E
09
EF
0F
25
06
F3
F2
15
F5
02
37
E9
ED
0F
DC
F3
1A
DF
C6
E0
0A
F8
22
EA
34
14
DF
E5
FD
F7
13
13
30
E5
E1
EF
19
F3
24
18
0D
C8
FB
18
10
12
F0
02
0E
F3
FD
F8
E0
17
1B
03
0F
11
EC
E8
0C
0E
1B
27
DF
08
1C
FD
F6
CA
D2
0D
E9
11
F4
FF
25
0E
25
E8
17
4E
13
0F
0B
01
DA
0F
08
DD
17
28
18
0F
C1
0A
E1
C6
E9
FF
D5
F7
11
24
FB
18
E0
17
1E
06
0E
33
04
EB
FC
04
FF
35
1C
2B
28
2F
DC
ED
D9
D6
21
04
EE
E7
12
0E
F8
E0
EA
04
33
F7
E7
FB
40
37
03
33
04
0F
D5
FC
D5
D5
EF
20
59
28
26
EB
F8
00
F0
04
4A
08
EE
E1
E6
03
CD
3D
DA
0E
08
15
0D
00
28
12
F7
F0
15
09
1B
E6
F7
F8
FD
05
ED
09
07
04
0B
F3
FA
FF
0A
DE
27
CC
02
0B
DB
44
0F
E9
1B
2D
05
29
21
16
05
16
38
1D
21
08
EF
F6
15
2A
20
2B
07
FB
2E
F0
FB
27
02
EC
33
FD
CF
D4
15
1A
14
EF
39
13
22
09
FF
F2
FD
37
2A
10
09
F3
F3
28
2E
D6
33
D2
21
0C
21
0E
03
FC
FB
33
2E
14
18
13
CA
E4
21
D7
F7
14
06
EB
1D
19
DF
09
13
F9
29
11
0A
DF
25
00
0F
25
37
01
04
25
EA
25
08
FB
D4
F9
00
D5
04
F2
09
F6
01
0C
E9
FE
FB
01
33
04
07
E3
16
12
0A
F8
F7
13
12
E5
03
41
0A
0E
14
E3
F6
2D
07
ED
33
FD
E6
DB
29
E3
0A
DF
01
D4
01
D8
D7
16
F9
0A
C7
ED
17
38
0D
14
F3
E9
0C
0C
1C
F3
18
F9
D7
FE
E1
18
2F
F5
01
3B
1E
08
CC
0B
10
E9
C5
0A
04
0B
F7
FE
0F
EB
E1
0E
15
18
EF
D4
33
F7
AE
EA
DE
02
F6
F0
D3
F3
30
D8
27
E7
FE
DB
1B
03
27
DC
45
1E
10
E3
22
F9
1C
1E
FE
E5
09
0D
F5
D6
09
2D
D8
05
CD
05
0E
FE
F9
F5
F6
F3
27
17
ED
0E
DC
13
27
C6
08
1D
CF
17
F7
02
29
CD
1B
0F
2B
D8
16
12
1D
F9
E5
01
4A
EE
28
F1
FB
FC
0B
FA
02
05
F9
FB
03
1F
0E
C2
DC
15
32
16
05
21
DB
13
DC
27
CB
F1
32
0E
F8
4B
D9
19
C3
BF
04
23
CC
14
2E
FD
0A
14
08
D1
29
00
1E
12
E9
0C
08
34
FC
D8
FE
08
19
F7
D7
F1
0F
DA
FA
37
FF
F8
02
12
15
33
21
20
F7
15
09
14
F3
F9
F3
F1
F0
1D
D5
3B
0F
FF
F8
19
DF
03
E6
CD
E2
FA
F8
EF
05
03
FD
FE
F4
22
01
E9
10
1E
01
0C
21
1C
00
11
E6
D2
DB
03
F2
F4
05
EE
EF
EF
FC
06
11
E7
E9
DC
07
EB
FA
E4
E3
ED
03
DF
F9
F0
20
F8
03
2B
14
2F
0E
F2
22
DA
23
07
3D
1B
09
F3
F7
F7
F2
E3
F7
EC
F5
0F
EE
20
34
2C
CC
F0
FB
18
EB
D6
CE
CC
26
ED
ED
D5
D1
1B
39
02
20
CC
FB
F8
07
23
02
22
16
37
26
23
F4
EF
10
10
16
10
1E
06
22
FF
1E
0A
FC
18
11
E8
07
1D
1A
F5
E4
F5
03
0E
0D
FB
16
15
F1
0E
2D
22
F8
31
FE
FE
D2
34
08
EB
F0
10
18
0E
31
EA
D0
24
03
E7
06
1C
2F
24
0B
15
21
00
14
02
F4
03
0F
01
FB
EF
F0
E6
30
F4
02
F3
0B
E7
DA
EF
DC
FA
1A
10
C9
DA
37
10
F2
F6
F8
05
0F
0D
0B
F9
0E
E1
11
E1
03
11
11
FC
FB
04
29
04
1A
CE
2E
F7
13
F7
F9
F8
0F
F8
D5
0D
F0
26
08
E8
F3
29
02
14
3E
FE
15
18
DF
F6
EC
1B
19
FE
D9
CE
25
EA
2D
07
CE
23
23
E7
04
1A
D2
E1
F6
0A
42
EC
E2
E7
01
FB
1E
17
ED
E9
F8
1B
21
F2
D8
29
CB
E3
04
20
E3
FE
29
D9
1E
D9
06
E8
F1
3A
00
03
15
3B
12
55
DE
E4
F6
20
CF
11
E8
12
FB
C0
9F
C2
E8
E9
F2
F3
D0
F1
E5
F3
E0
F1
F0
F5
FB
2C
F7
EB
F2
F3
3B
DE
E1
DF
04
F6
EA
F6
0B
F1
CC
FE
FC
12
41
FB
F7
E3
F8
0F
BC
00
EA
FE
27
0D
15
05
E4
1B
DD
FC
11
FE
FC
53
17
1B
01
1C
ED
05
11
19
FD
2E
A2
DE
13
09
18
02
F5
12
1B
1B
EB
F6
E6
03
D5
EE
E4
D5
12
28
C0
BE
F0
D9
0B
0A
D4
F9
12
EB
1F
07
0C
0D
02
01
46
01
1C
05
02
C1
25
12
FF
F9
C4
1B
19
EC
04
FB
E3
E0
FF
EA
00
E8
F5
E3
EE
E4
DD
1B
F6
1D
DD
1B
01
F0
0E
16
05
16
07
F0
D6
D4
ED
EE
16
32
ED
EB
06
05
EB
DB
00
FC
C7
D5
F0
FA
0F
15
05
08
C0
20
D1
FE
0F
D7
EB
F5
FE
0B
E4
E3
EE
0A
0E
F4
D8
08
FD
1E
11
18
11
15
47
F8
D8
E7
15
C7
CA
0B
F1
FC
3C
06
E8
E9
04
03
F0
19
06
EB
F3
01
F7
F5
FE
F5
0D
F5
F3
F8
E6
1A
CB
16
DB
09
FA
FD
15
2C
ED
E5
22
F2
F9
02
B7
E6
21
F9
E7
F5
09
F5
FF
10
F8
3C
F7
FB
FC
27
10
CF
E4
14
CE
00
31
FD
16
FB
03
F0
13
28
E7
12
D4
E3
FA
E2
D1
F6
31
04
1E
1A
F4
11
0E
FC
F3
03
F1
F1
17
08
30
00
FF
20
FC
0A
25
D6
C7
CB
EE
13
F1
E9
F9
14
EA
32
22
16
FB
F6
FA
2C
15
F3
05
00
F6
FA
EA
FB
2F
1F
FB
E4
1A
13
22
F7
1A
1C
06
09
17
0A
E8
E1
1E
F7
E4
EF
ED
04
FD
01
ED
FF
E9
1A
0A
09
37
F9
17
F5
1B
0A
07
31
DC
FF
F6
2E
08
EC
F3
3B
2F
CB
0F
E5
FF
E6
0D
F1
F7
31
32
06
03
05
FB
01
EC
01
F6
E9
F1
0D
05
17
13
09
05
FC
EA
1F
E7
39
09
27
2D
2D
E1
F1
25
05
FF
08
FF
FB
FA
16
21
08
EA
33
0F
FB
07
F3
FE
21
F3
11
30
D4
16
E5
08
12
DB
F0
28
42
07
37
09
16
D4
F4
D7
E7
F9
03
F1
EB
06
E8
E9
12
C1
D4
02
FB
F4
1B
FA
10
D3
E8
0C
12
09
01
01
0C
1A
FA
29
FA
DE
2E
FA
EB
D6
DA
F0
0F
BE
0B
3F
0F
12
F4
10
C1
18
FD
09
E2
06
04
F0
FA
D0
08
E7
0E
1D
32
E7
E0
09
E4
F3
E8
2F
F7
EA
25
D2
F6
19
00
EB
0B
3F
14
FE
0C
0D
F0
EB
E7
FC
0D
B7
2D
15
F0
C2
15
35
0B
FC
E9
FD
FA
09
EF
05
03
D9
DF
E8
FA
F1
F7
0A
EF
E6
43
17
DC
04
F0
37
FD
10
D2
13
15
FF
FF
08
16
11
DC
E8
F2
D8
17
F4
0A
08
1F
0A
0D
14
CF
EB
D2
27
06
1E
1E
E6
2F
1E
1A
04
FF
19
04
0D
D1
07
F8
EE
0E
2B
F7
28
16
1E
12
EC
1B
F1
E0
1E
1D
FC
DD
1B
32
CD
E2
02
15
06
2B
E9
1C
E6
21
27
0A
13
16
F7
F6
1A
01
33
FF
E7
18
EA
0F
06
F0
0D
1D
20
10
08
FE
0D
0C
F3
2C
1E
EB
F6
F7
DC
C5
02
23
E9
E4
1F
FC
1A
14
2C
FB
05
01
EC
0F
11
FF
0B
1B
2F
2B
FE
E3
EF
F2
DB
34
E2
2B
F9
FA
F8
DF
FE
FB
39
DA
0C
FA
0D
4D
20
F4
FB
01
E4
12
EE
0E
DE
24
DB
F3
F1
FE
34
E9
13
C8
0E
B2
F2
FC
EB
10
27
17
08
FF
F3
DA
FE
FF
BA
21
FE
FB
BA
1C
1B
0A
55
F4
EA
EA
18
DF
15
0D
18
FA
11
1E
06
E8
06
EA
F8
1D
F8
F2
FE
D6
BE
40
2B
D6
F5
F4
17
D2
0B
EA
F9
F5
D2
16
16
2A
20
F2
CE
E1
F3
C9
C2
07
CF
DB
06
1C
F8
EF
25
11
24
1C
B3
06
18
0A
F3
0E
2D
FD
F3
F5
E6
D1
01
0D
0D
F8
0A
F8
F2
01
D1
FB
10
E1
00
0C
F7
00
25
13
07
2C
16
F2
19
0B
35
D0
C8
E5
E3
F0
ED
2A
2F
D4
E1
0B
F6
0E
FB
03
FE
E0
08
FD
B4
22
F6
EC
ED
F3
1F
21
F5
CD
ED
0F
15
17
E0
01
0D
F2
E5
F1
E9
20
41
C7
D4
C3
08
01
E4
D8
CE
FA
27
D8
1A
EF
FF
0A
E5
E4
2C
2D
BD
0B
E9
DB
01
E5
14
28
E0
2C
EB
02
16
1E
E3
E4
0B
16
24
1B
1C
03
DC
2F
31
0C
D2
F6
04
11
10
D4
05
FB
2C
FB
FF
0B
35
EB
E3
04
0D
F7
E9
EE
1C
F5
2C
30
EC
14
0A
FE
49
E8
2A
4C
07
0B
1F
04
E0
10
D5
F6
02
05
05
00
44
04
02
EA
33
0B
D2
02
E3
0D
C7
E7
09
F5
DF
F8
24
00
1A
05
E9
1D
E4
E5
22
E9
13
F1
E7
0E
23
F9
1F
22
14
E7
E8
EE
03
08
E9
D7
02
F8
E1
E2
DD
23
09
FB
03
35
02
F6
F9
F1
0B
01
19
F3
FF
3D
EC
0C
13
18
EC
D2
03
E9
D5
0D
F6
22
19
12
F8
0F
00
10
CC
1E
01
4E
18
F6
10
02
01
DD
F7
26
E6
D9
25
1C
08
07
F5
E6
E9
F1
08
FD
06
AB
D3
03
EE
17
55
0B
ED
D4
19
E7
0F
13
D5
0A
F1
F8
F0
36
E8
17
05
2F
1B
E0
CB
D0
2A
3B
EA
F4
F5
FF
2A
EC
2B
0C
05
01
03
0E
FD
F9
FA
10
EA
CB
F0
25
29
0E
10
0C
D8
EA
05
C5
E0
EC
D6
03
F2
03
1A
26
FC
F9
D0
16
29
F4
0B
18
2C
E6
14
52
13
FF
04
02
EA
18
DF
00
2A
15
EE
DD
0F
19
35
0E
09
22
E8
FC
0D
12
F6
13
F0
FA
F5
0D
F1
F3
E0
F3
29
12
FE
0D
0B
02
CC
E3
F6
20
E2
D6
2D
15
11
0F
FA
EE
FF
0F
D4
01
EF
0B
08
1E
ED
E4
25
12
EA
FF
F9
F5
31
E9
1C
D7
E9
30
0D
F1
0F
F3
15
1F
1F
19
11
18
D8
EA
D4
00
04
FE
10
D6
02
FB
E6
F4
D7
15
FD
E2
0A
21
46
46
D9
FA
3F
21
0C
24
12
B6
4E
14
F4
FB
0B
05
21
04
EF
0D
EB
21
CA
0A
41
F1
FD
15
12
EE
03
2E
FC
CF
EA
FC
DD
FF
E5
15
1D
2E
0C
20
3F
FD
FF
07
2F
ED
11
13
09
22
01
D2
C2
3A
2F
21
09
EA
F1
1E
19
F7
2B
D8
07
D5
23
0D
19
35
F1
15
F8
FB
F9
EB
12
02
07
0E
51
F0
E6
07
2B
08
06
32
E8
FA
30
33
1C
D8
30
EE
CB
02
E5
0C
10
0C
F7
23
0C
28
0A
DA
0C
1B
1C
36
E2
F6
08
E8
12
22
DB
2A
F7
0C
E6
15
F9
12
D8
FB
45
09
F1
3A
E3
FC
D7
01
FC
1C
03
24
2B
FE
E8
0B
1D
FD
E3
F9
FB
1C
06
FC
EB
12
BE
15
EA
07
26
E6
EE
DF
E0
F0
00
F5
C7
03
E6
07
E5
DF
F3
06
FD
F2
FA
DC
E8
F6
12
06
EE
CC
E9
19
F7
01
30
E6
12
EC
F7
F2
14
2B
09
51
E1
F6
DD
27
02
16
F8
14
F5
E1
13
EA
FD
EB
00
F7
E8
09
0A
05
11
00
05
E8
01
34
05
DD
11
FA
EC
03
0D
ED
FE
04
0C
99
16
0D
08
26
0B
E4
E0
CA
0E
1F
E0
2C
0F
05
CA
27
18
1D
17
FD
00
1D
EC
12
1C
33
0A
EB
DD
06
0F
1D
12
E7
EE
15
06
F0
D8
F0
0A
15
FA
30
16
F7
D3
08
1F
F2
DC
AB
25
FA
11
D5
0C
EB
07
02
D7
FF
07
02
2A
F8
03
EF
FD
11
15
0F
F2
21
F3
DE
0D
16
1A
2C
13
0E
18
11
DF
F2
0E
27
C0
0D
1E
08
F8
25
0D
E0
0C
F4
DE
F7
DB
E4
00
1D
1C
F4
2D
06
09
15
23
F1
0F
1C
12
0E
E7
23
13
28
F6
F7
15
FF
04
D1
20
FD
08
0B
23
DF
EC
1F
16
FF
10
FB
FE
2A
F6
14
16
F1
DB
07
31
07
EF
1C
EB
19
01
EB
0F
08
17
10
22
F5
2E
10
21
D0
F3
FF
CA
02
F2
0D
13
1F
DC
0A
01
EF
27
F2
11
DE
10
D8
03
F1
28
FB
18
F3
1D
0C
5D
F1
BE
07
24
22
ED
E2
F3
F4
EA
F9
F8
E0
28
EA
16
FA
E3
E3
14
2C
E9
2A
E0
E7
1E
FE
03
E7
1A
EF
05
EF
F2
09
FF
F6
09
38
15
10
22
F6
C3
00
ED
12
FB
10
F5
F0
1F
FF
EE
1A
D5
F8
05
01
F9
2A
FC
FE
D5
D3
CC
E0
00
E4
C9
E6
01
38
19
1F
FB
09
07
E3
02
0F
B3
FF
0F
2A
0A
F9
BA
F7
F7
EF
2E
F0
D5
E5
E7
DF
29
B4
C0
E8
1B
42
0F
FA
CC
28
D7
1E
02
EF
0B
DB
C9
2A
E2
04
07
1A
FF
CC
36
D1
16
FB
EF
FD
22
09
CD
17
E1
12
D8
E5
E9
07
18
01
01
0C
11
03
1F
F5
10
ED
DD
F9
1A
0F
1C
0B
81
FB
ED
21
E6
ED
E8
C1
08
CD
E4
FC
11
14
10
FF
27
F7
10
F5
F8
FB
E3
04
0B
07
E7
07
07
04
20
D2
CA
0F
35
1F
08
F1
D5
E4
D3
19
42
36
35
1E
15
2F
E1
CF
FD
D7
0A
FD
1F
04
15
D6
F0
05
BF
A9
D2
FB
06
E6
FA
C9
D3
14
22
C3
09
0E
38
FC
E8
27
FC
0B
EF
E6
ED
DA
E2
21
0B
EF
11
1F
EC
03
23
EE
10
21
0C
D4
E4
FE
EC
01
C5
EE
E6
E4
DF
D1
E6
19
FA
F5
1C
DC
D2
EA
FF
E4
1A
0A
20
F5
03
36
D7
02
C5
2F
F1
F7
F2
09
18
C1
34
FB
0D
F7
F7
D8
00
F2
EF
05
03
37
AC
13
E9
17
27
06
E5
2B
06
F3
F7
DB
00
15
08
00
FB
27
F4
D6
D2
2C
EF
11
D5
FF
2D
FD
5F
13
E0
FF
EB
00
2B
CD
01
0D
08
D2
D0
E9
EE
EC
FD
21
00
21
12
19
E6
D9
44
F7
F6
12
F3
EE
E1
F6
E1
2B
EA
FB
34
F6
1B
31
13
FF
0C
DC
21
0B
F3
0E
D3
07
0A
0E
09
F3
28
FF
FF
ED
05
DA
F9
D5
27
30
0A
12
22
4D
F5
24
E0
E0
53
27
F6
18
07
F1
01
FE
E3
E2
F2
08
DA
CB
05
01
E3
F4
0A
F3
2F
D7
C0
CD
00
2F
0D
D3
07
E6
F2
08
0C
1C
27
0A
F2
03
F4
C3
E9
01
E9
FE
18
F4
F0
FB
E6
1C
0A
FC
EB
07
1E
07
FF
EB
E4
D1
E8
14
EF
F4
FA
FF
E5
2C
06
01
F1
0E
EF
1B
FD
F0
D9
0B
F3
E9
FA
E0
E1
FA
24
F9
1F
FA
F8
02
DC
DF
20
11
FB
1F
CF
20
00
E8
E7
13
11
CF
CF
F4
2E
00
0A
22
17
BB
E1
BB
BE
F1
2A
06
E7
00
E8
36
12
EE
D6
C5
FD
01
EF
01
EB
02
FD
20
E1
09
04
FC
CE
25
28
DD
E6
FD
27
E7
F5
F4
0B
05
E9
0C
1F
0C
06
23
12
D3
01
E2
0B
F8
0C
EF
07
EF
F8
D4
08
DD
21
E4
19
F5
34
0C
ED
44
0A
F5
10
29
E5
1E
19
DB
C3
F6
EE
06
50
1A
05
E1
09
D4
F6
1F
31
F2
D5
3A
03
F1
EB
0C
27
D4
EF
E4
13
10
F2
E1
19
08
0E
C2
3D
06
02
F1
FA
00
EB
F3
E9
00
EC
FD
03
0C
13
13
16
02
0A
0A
D1
10
F2
29
F3
F9
E8
B3
60
D4
CA
E9
F8
FE
D9
FB
2B
F6
F1
0C
0B
16
29
16
FA
F9
0E
10
D0
0A
F6
D6
F8
BB
11
EB
F5
FB
ED
28
D9
12
CF
26
01
E0
F2
10
DD
CE
D2
FE
1D
EA
0B
3D
0E
E7
1B
2B
0B
F4
F1
1C
1D
20
D8
F3
0D
0E
3C
2F
17
0B
D3
02
21
D5
26
FA
13
FD
D7
FD
EF
D6
E2
1A
F1
FC
16
20
C8
EB
01
F1
D9
E9
FE
E0
05
39
2A
01
0B
1E
09
04
0A
D8
1C
2B
21
0F
01
03
35
1A
39
24
06
F7
24
E4
ED
ED
02
41
F7
EB
0C
03
DF
2A
0E
00
33
25
0C
11
07
FE
C4
F3
08
EB
F6
FD
FF
03
00
10
DC
EB
B6
16
35
50
EE
E4
F8
DF
02
E8
EC
1A
C8
00
20
F6
2A
E3
03
03
F0
E4
28
1B
0F
29
0B
02
1A
08
CE
F6
24
00
F4
01
D7
0F
1E
06
2E
09
0A
F9
D1
EC
1F
E6
F4
FE
CB
F8
DC
F9
EE
06
04
15
F3
F4
05
E3
0D
D5
11
FE
F1
1A
ED
1C
C4
E4
C3
F2
0D
3E
D2
DD
F9
04
D8
F6
E5
E7
0B
E5
C7
06
46
FB
FE
25
F4
F6
F5
0A
F5
03
FB
03
E0
F8
F0
FF
13
0A
EE
1D
FD
1E
26
EC
E8
E2
05
02
00
DF
09
DC
EF
F2
17
F1
E6
E3
00
E7
DF
2E
F2
08
FF
EB
EF
24
21
16
10
ED
EC
D5
E3
EA
F7
E4
21
03
FB
F5
17
E4
14
DB
19
F3
17
00
00
0F
09
04
10
04
CF
F8
DB
E1
37
0F
0D
F1
BE
28
03
E6
E9
FF
EF
F4
EB
01
DB
0B
0A
F8
FF
0D
FD
FB
DC
CE
BA
C8
06
FE
FD
E9
B9
03
CA
EF
24
E0
18
FE
E1
FF
2C
29
F7
28
FD
1C
00
0B
20
F0
F8
1E
07
DA
E6
06
FE
FA
24
CE
FC
06
1E
13
FC
F1
27
04
14
09
07
C5
FF
15
D7
11
E1
12
3B
03
11
24
1B
1D
E3
15
0E
F3
DC
11
28
0D
F1
1F
1C
1A
CD
2F
21
1F
07
E3
1F
F7
F1
0C
04
F1
37
EC
32
23
F3
0B
0D
F7
FC
FA
F7
D2
FF
FB
19
1C
F1
08
13
2A
D3
13
C9
01
CB
F1
10
01
10
E7
20
40
EF
08
09
FD
32
2C
03
02
F5
01
CE
0D
FC
2C
EE
0D
DE
1C
08
12
E6
F7
ED
C4
0C
05
F2
D1
05
E7
E7
07
29
31
20
13
23
F1
18
09
05
06
1A
2F
0F
FB
21
EF
04
E4
13
12
FA
FF
05
0A
08
0C
25
10
D0
DD
08
FB
EF
E8
E4
D0
21
01
00
DF
11
19
05
09
21
FB
0C
08
E1
0C
F7
F4
06
0F
14
10
05
2D
FF
42
C2
D2
E8
14
0C
C7
E5
00
E9
0E
1A
FE
1D
2D
F5
FB
C8
C9
1A
25
F2
14
F8
27
0C
F3
CC
2C
F1
F6
35
3D
F0
E6
07
F6
F7
ED
FA
07
F7
21
F2
04
01
0B
07
06
ED
31
0D
0A
09
03
F9
DA
FE
F7
3D
F4
2F
EA
EF
0F
1D
12
CD
FD
EB
F4
F9
24
02
F5
E2
FF
3E
15
0D
FC
F5
15
EB
E6
19
D5
03
F9
15
2A
C7
FF
16
FA
DA
12
10
F1
14
18
03
40
FB
F2
0E
F3
E5
FE
E1
E7
F5
2B
41
01
08
1B
FF
F2
16
10
00
12
4A
E4
F4
B3
E2
DA
DB
16
F7
2A
0B
EF
2F
01
07
E1
11
24
25
DD
C4
E6
EC
29
1C
F2
09
24
02
11
E8
E1
21
D1
D7
E3
25
E6
F4
BF
03
2C
FA
CD
EC
F0
CB
2B
09
15
EA
19
0C
14
CC
E4
DF
DA
03
0B
07
01
1A
0F
C8
12
F9
EB
F1
29
0F
CF
C0
F0
D0
0B
F7
24
D9
09
F0
11
1C
D6
F6
FD
E8
0A
1D
EB
19
06
05
13
22
D2
E9
04
06
C6
2E
D9
DF
0A
FB
1E
19
10
2C
E4
E9
00
55
05
0E
0B
28
E5
FE
E0
E5
FA
21
14
D2
D6
E0
FE
D8
D2
D0
0F
15
35
F8
08
20
00
17
05
F4
0A
17
E6
DE
04
1C
08
01
28
FA
EF
FA
E9
F1
D8
19
F3
2B
00
0C
DA
0D
C4
D3
25
DB
F1
BC
E7
F3
00
DE
E6
12
06
F2
08
F6
CD
F7
FB
1D
E5
DC
F3
F3
0C
02
DA
08
16
F5
F6
D5
0A
F3
FB
FE
EB
B3
E8
DD
EB
DC
26
FF
D8
BE
08
05
1E
22
E7
30
F6
CE
0C
FD
14
E1
01
D1
07
EE
D5
E9
27
04
06
1E
00
E1
07
F3
28
CF
09
03
F1
3B
CA
BC
EB
07
BC
1F
F6
EF
C7
FB
FE
05
DF
0C
0B
E1
1C
E7
F8
FB
10
05
2C
35
39
29
F9
15
E4
25
D1
03
CE
04
FA
07
E2
22
DE
08
1C
2A
1A
0C
16
10
0C
DB
F9
20
0F
22
2B
21
35
F1
1A
FF
DD
09
DA
12
2B
DF
07
C8
0C
F8
41
F4
06
DC
DE
C2
E2
1F
08
E2
17
F9
26
1D
F4
EB
0D
4F
D1
15
26
27
17
10
F2
06
0C
20
F9
37
EE
F2
19
29
03
1D
0A
EB
F4
09
E1
19
FA
08
17
F4
F6
F8
E1
14
F4
18
11
EE
0F
06
DB
2A
ED
DF
F4
F6
12
18
00
E4
E9
E6
1B
0A
FE
22
24
E2
08
1C
03
0A
04
15
34
05
15
F1
EF
FD
EE
14
0A
E2
09
28
DE
1D
FC
08
F2
08
01
1C
1C
FB
B8
DF
F7
07
0B
F2
13
05
10
E1
35
F1
F3
F8
0E
F0
01
24
D6
0D
FA
0A
C8
EF
21
FE
13
EC
22
13
D9
0C
19
EE
08
DA
FA
1C
FC
19
F8
A6
BB
E9
03
17
05
09
D9
05
F9
26
F9
D6
02
1C
09
E8
34
0E
19
19
0B
0A
1D
F3
E8
D9
FB
13
18
21
08
FD
D6
F3
F3
02
D6
FA
EC
D8
00
FE
12
FD
E1
1C
EC
13
F7
F2
13
14
FC
FE
EC
23
F5
BA
ED
E3
1D
F5
C5
F6
02
F4
F5
07
ED
DF
F3
03
0A
FA
D5
05
EF
00
F8
15
FA
19
FE
0D
17
2C
FC
EE
E9
1B
3F
CB
E0
11
EC
FE
F4
E4
F1
FD
EA
07
DB
DB
C9
FB
1F
DF
13
12
3B
16
F1
DA
F6
0A
EC
12
1D
F9
FC
FC
E2
DD
FE
15
F9
23
D8
03
30
D2
23
DC
FB
ED
12
EB
2B
21
0F
DC
D6
F9
0C
20
FA
DB
10
2D
18
E9
FA
EF
F9
0B
F9
13
F3
02
1A
CD
D9
C9
F1
D4
F8
23
51
26
3D
F0
DE
C5
11
FA
37
FA
C0
11
DA
15
CA
DC
EA
0E
F5
F7
1C
ED
E3
F0
01
09
1F
EE
DB
EA
EA
FA
27
EA
01
25
F1
F6
1E
0B
EA
0D
F2
E2
EA
D9
1C
19
05
04
0B
1E
05
CB
FB
10
EE
F2
F1
18
04
0F
EE
01
01
06
01
F2
06
09
01
4A
C3
FD
08
20
01
EC
08
13
06
DE
25
14
1B
23
F3
F8
15
FB
04
00
1B
E7
F6
E1
FB
18
BC
F5
FC
15
05
19
1D
24
09
D2
0E
FE
0A
2F
0D
F6
DD
35
EE
E7
F1
07
10
DF
06
17
E3
F1
00
18
1D
F7
14
D6
0D
F9
F2
15
0F
06
07
FA
EA
FE
2A
1F
EE
14
06
34
18
F9
38
FE
0B
26
2D
CE
EF
17
1C
ED
EA
E9
0D
04
B6
1B
0F
E0
BF
10
DE
F7
10
07
13
0E
DD
E7
25
12
E8
21
0A
B9
E7
20
FA