01
20
E8
12
E3
AB
D9
EB
15
39
F0
FE
11
0F
F3
14
FE
1F
CA
F0
29
2B
E1
EF
02
E4
FC
F2
31
F2
18
12
08
DE
EA
D7
CB
06
FD
3D
C8
E0
BF
47
0C
01
EF
18
24
1E
39
FF
D5
F5
23
01
06
F7
BE
F2
05
26
DF
57
05
F5
F4
12
39
4D
39
0C
EB
05
F8
ED
14
D6
E9
EE
14
D2
C4
C2
20
FA
FE
E9
15
20
0B
40
41
04
13
CE
36
07
02
25
E7
21
D9
F8
DE
0C
FC
13
FD
27
28
EB
28
F2
1F
EB
0E
FC
1E
EE
23
EF
DB
FD
C9
F3
18
20
FB
FF
B6
1A
F5
D3
04
E6
EC
09
07
FB
13
EF
E5
D5
93
02
BC
F8
EA
11
EB
0D
26
C8
DB
28
DA
E4
D1
E1
06
34
FE
46
DF
CB
CE
15
EB
37
1B
F7
05
F7
1B
35
04
A9
27
0B
FB
BA
1B
18
02
FB
E9
E9
1C
D1
28
EA
33
F2
40
F5
CD
00
C2
FC
2B
10
3A
E1
5B
F2
FF
B0
06
01
AD
B4
06
3B
29
F4
B6
01
C5
0E
F3
1B
EC
07
E7
2B
F8
C7
14
E6
CF
06
11
E9
B4
1E
1C
EF
EA
03
AB
0D
E8
D8
DF
23
30
FE
05
E9
0B
26
E4
FB
B0
F9
11
CD
02
E0
F7
43
B8
25
1E
FD
EA
2C
2F
01
F3
0B
EA
3D
F3
E1
0C
D7
F7
D6
FF
EE
FE
4C
DA
F8
0C
FA
1F
19
01
06
01
0D
01
E2
04
02
D6
BE
0C
E2
B6
DF
CD
C4
0E
C7
FC
F5
F8
D9
D0
F2
EA
14
89
ED
04
51
DC
19
07
CB
E7
21
03
03
02
00
04
C4
16
23
1A
C5
02
EC
0D
04
19
35
EF
BB
30
AC
C0
07
D6
27
00
32
DC
F6
44
C5
01
F3
DB
E0
D5
FE
D8
C6
EE
E4
1F
11
07
FF
04
02
F4
D4
E6
24
FF
E0
0D
4A
E8
05
F5
FE
3A
E9
36
F2
2A
06
FC
0F
FC
10
DB
06
33
10
FB
A9
D7
39
03
24
FD
F5
07
06
FB
0E
43
3F
38
22
EC
05
F1
16
1C
1A
1E
1E
13
05
FD
43
F1
1B
F4
F8
33
DF
16
33
C7
F8
E3
0B
1B
F4
04
11
FF
E5
0C
14
EF
D8
FB
B6
EE
00
D5
EA
24
09
F8
F7
0C
2E
E7
04
D8
DF
1A
33
0B
34
DB
F1
06
12
07
34
FE
06
29
1B
F4
EA
D6
13
19
43
28
E5
2B
F0
E0
B3
4B
3D
1A
2E
38
2A
07
23
25
2E
F5
28
C4
27
01
0C
49
2A
EB
E6
F4
D4
FE
09
0E
F1
45
12
29
C9
B7
05
3F
F6
0E
E2
F0
1C
39
1A
F3
FC
45
54
F6
01
97
F8
12
AF
EA
2E
02
20
0A
3B
23
11
E8
2E
E4
1E
EB
41
25
03
DA
D1
F2
15
15
F0
F4
0A
FE
E6
07
21
F8
FC
FF
0C
06
36
07
23
D7
C6
D3
FC
DD
E1
FD
07
38
1C
23
39
F4
EF
3B
CF
D6
F8
FC
C6
05
39
31
12
09
30
E8
F9
10
E8
39
EF
34
24
00
4B
E5
17
0E
0A
28
22
F4
0A
C6
EF
0C
AF
25
03
F3
27
0D
0F
DA
19
F0
04
F8
52
24
07
BB
28
0C
17
55
3E
F9
E6
EA
CB
03
1B
EF
06
F8
F7
EF
FE
3D
11
4E
22
E0
EB
0A
CE
F8
C4
0E
F2
CB
02
1A
0C
02
FA
13
DA
F8
FC
28
E3
E7
0F
BE
17
ED
F6
C5
EB
22
33
0D
F9
2F
1C
FF
21
2E
40
F9
19
36
10
FB
FF
F0
19
0E
FE
14
FB
D2
F9
17
E4
44
00
CE
CD
B7
D5
DE
02
0A
E1
BA
DC
09
12
0B
00
29
04
0A
DB
04
2B
E8
18
ED
EB
28
12
FF
D7
20
FA
09
26
4A
09
24
37
E9
F3
D4
22
E7
16
E1
18
0D
CB
FC
CF
CE
E3
F1
F6
12
0F
FC
1E
3B
EE
B3
26
CB
0F
F1
BB
04
1E
14
F8
1F
FB
DB
DE
2A
11
DA
F6
18
F4
E2
F4
24
06
D5
1A
1E
2A
F1
0F
1A
DB
C7
0B
C8
DB
CB
2A
28
04
30
DB
BD
EA
49
20
E4
BB
D9
1E
F2
DC
0B
A3
F0
F4
EF
B3
E0
9D
13
FD
43
F7
17
F8
16
CF
E9
D1
F9
E2
EE
C9
B8
F3
05
CC
D2
0E
DB
D8
47
1C
E0
0E
29
0F
FE
28
F1
F9
1B
1C
1E
0E
13
FE
24
25
15
F0
49
E8
F8
DC
1F
E3
01
14
02
E7
10
33
47
28
F6
E9
E1
0A
1D
18
34
24
DC
14
C7
02
04
EC
EA
1D
08
CA
EF
F3
C9
BD
E0
BB
D5
DF
E2
1A
26
C3
F8
A8
F0
E8
08
FC
48
2E
09
E1
D8
FC
2E
FD
DF
D0
D3
D6
00
27
11
08
EB
E7
01
1C
28
D0
3D
21
2A
42
F5
18
E6
0D
ED
E2
1C
E6
0A
3E
0A
0D
DE
2D
06
27
0A
FE
F5
2C
43
1F
CD
03
FC
D7
24
FF
F4
F9
0D
FC
00
F7
E4
09
2C
02
23
C9
FB
C2
1E
17
F0
0E
F8
0B
04
DB
21
1A
F3
0D
AB
A2
10
F7
D6
DB
4A
FB
32
D2
0D
32
18
1B
CB
0B
0C
4F
3A
E3
13
06
53
33
3A
03
FB
AF
14
15
27
BC
E6
DB
D1
31
FC
0A
4E
D3
05
12
25
F6
D8
4A
31
B2
20
E9
DF
09
3E
15
EC
16
1B
E0
0F
14
03
FF
F9
B4
0A
D8
B9
E9
0B
03
FA
D9
CA
10
F4
0A
02
F4
05
16
EE
21
04
BB
20
DA
21
1E
F7
02
E9
E0
DD
FA
01
34
F3
03
FB
CB
08
F0
E3
D4
CA
0D
26
16
0D
0C
17
27
FC
EC
F3
F1
FA
08
D6
DD
EE
F3
02
F2
EE
07
0D
0C
0E
09
03
D1
3E
DD
0C
26
10
11
FC
08
05
14
06
E3
12
21
16
D0
24
02
38
FA
F3
11
DA
15
00
09
19
06
33
10
9F
DE
CD
3A
A8
B6
F0
D1
E0
F1
04
23
07
02
00
02
DC
EE
BD
10
DE
00
09
12
05
1F
E5
0B
F0
DE
24
02
D7
DA
28
D7
00
42
1A
0E
EB
E7
D0
13
E5
F4
B6
0D
FB
D1
0B
FF
00
37
19
03
27
15
2A
B6
20
10
DC
0A
4E
0C
CC
18
1B
E6
EC
23
29
D5
0C
46
E7
DA
17
BE
06
28
06
F4
C7
F4
F0
3C
EE
FF
F1
F3
E2
3C
01
03
DA
E7
1C
FE
01
2B
22
F7
3A
39
F2
D3
FF
E7
F5
F8
36
FD
0E
DE
21
25
10
11
27
0E
F4
E3
F4
21
4B
E5
2B
F5
04
15
F2
2B
76
16
FA
E5
F8
0C
1C
38
38
12
C9
3D
DA
C4
58
F4
1B
EF
32
2E
EC
09
EE
27
FC
18
08
00
02
2D
26
03
15
B3
05
E5
BA
17
07
F5
C1
0E
D0
F7
F7
F4
F5
E5
0A
0E
07
D0
1A
25
FC
D3
FC
F5
18
DA
E0
04
EC
03
18
09
1B
0E
FF
13
1E
E3
20
FD
0A
18
15
F4
14
35
0A
02
06
1D
0F
08
00
26
EF
1B
24
28
13
F6
04
1E
1A
40
15
EA
15
F0
25
58
16
F3
F3
0C
27
EB
14
49
F7
C1
F6
D7
F6
04
0B
C2
01
FD
FF
B3
EE
B2
EE
36
8D
F6
FA
D9
27
F9
E8
EC
21
15
45
1C
20
ED
1D
DC
2C
06
34
E9
02
26
CA
12
F4
00
E7
EB
F8
F3
3C
F3
EB
3B
07
EF
17
D8
F7
43
EA
0D
EC
2B
05
30
36
D0
07
D3
E2
02
EC
01
16
FD
DA
E0
16
2A
EF
0C
F2
14
E2
E0
C8
0F
0D
0C
15
24
0B
D2
25
14
D2
44
02
1B
02
1A
29
20
2B
E8
06
04
BE
48
1F
02
02
09
FE
12
01
EA
37
0F
21
3A
14
1E
AA
18
F3
FD
E3
D7
05
FD
33
23
C2
DA
15
F6
14
0F
F4
DA
C3
13
FA
F6
01
03
EB
C3
01
3C
1D
2F
F0
CA
FA
E6
FB
34
10
14
05
FF
1F
53
19
2F
09
F1
08
06
03
46
FF
0C
FD
28
ED
FD
10
F8
E7
2C
ED
E6
DE
0B
FE
34
B5
E9
33
F8
D9
09
DF
07
EA
E2
D3
FE
ED
1E
FD
2C
DA
E9
28
03
15
F8
22
0E
08
DC
0B
F7
00
F9
E2
E3
10
D3
22
02
CB
ED
16
26
EF
F6
FE
32
22
F8
1D
19
FA
13
F1
F2
25
2A
DC
F2
41
24
EE
A1
FD
0C
E7
E8
16
03
C9
DE
F4
EC
F6
AF
EC
01
D7
0F
11
14
00
C3
F0
0B
07
E6
ED
FA
D8
32
0B
FC
F3
E4
A5
46
E2
02
18
1D
E2
D8
0B
F1
F1
0A
AF
ED
DC
2C
BC
47
09
0D
DD
07
27
07
0A
E5
C7
BC
C1
FE
1C
E0
14
0E
F4
FE
2C
25
1C
09
F1
24
F5
01
F9
DF
F2
05
44
0E
FF
DF
0B
20
12
A2
35
E1
ED
F7
FB
EB
FC
23
EE
F8
C9
41
CE
D8
0F
2B
1F
1B
00
26
38
13
0D
DE
F1
DC
FF
33
EE
08
F7
CB
12
31
EF
D6
17
0D
E3
2D
DF
D0
E6
4F
C5
21
27
20
29
EF
01
F6
AD
DE
BB
F5
EA
1F
FD
15
1D
E0
D0
ED
BF
14
0A
E6
E9
FF
DF
E3
E5
05
F4
E4
C4
D5
D4
27
23
03
57
E1
39
D0
F8
F4
07
E6
D3
F8
31
23
0F
E0
00
D1
F6
FF
4B
20
B3
09
E9
11
D6
38
06
F1
24
08
F4
30
22
F4
09
F7
19
00
EE
1B
13
0A
F7
04
11
E3
F0
EB
D1
F1
D9
15
2E
04
BC
E3
03
DC
D7
14
20
0A
04
02
D1
30
64
E7
0C
1F
09
02
59
36
2A
21
D8
F5
F8
E2
31
02
08
1E
16
E4
EA
30
E7
F9
D1
CF
08
D8
F3
0E
34
F6
0B
F7
D2
01
0F
15
FD
27
CF
4C
16
E1
C1
C8
13
ED
19
08
FA
DC
37
FB
0A
13
22
E4
0B
E1
1A
36
09
E0
D7
03
43
AB
3B
2A
39
BC
F7
21
34
25
0D
1D
0F
F2
D3
E9
11
20
21
DF
E9
02
29
5B
16
0F
C8
D2
FF
21
12
E4
0C
E9
E7
F8
08
1A
09
0C
F4
FE
DC
1E
D1
F1
E3
0C
F8
03
20
EB
E8
F1
FC
3E
DE
F6
04
F9
11
3F
F4
1C
AE
CB
AD
1E
1E
D5
F6
F7
F3
10
11
1F
F8
08
49
F0
E8
B6
F5
CA
C1
15
F7
16
0A
AB
F3
F6
27
1F
28
C2
EF
27
FF
D6
00
4D
D9
F4
02
01
2E
18
7F
12
E3
04
FC
F5
26
09
06
EE
27
E7
2C
2E
D9
E0
03
60
23
0D
E0
0E
F0
F0
EC
21
21
E7
DE
2A
0C
F6
12
0D
EA
F6
C7
0F
E3
C4
D0
E0
1B
13
17
09
0C
C2
D1
FB
01
13
17
1C
0E
0E
B4
18
DC
E2
29
D2
05
58
27
03
15
ED
15
D1
D4
15
5B
E5
F2
1B
FA
00
0B
07
1F
F1
EA
B4
24
1A
06
0F
15
F0
BE
15
F7
04
E6
F7
AD
DE
F6
41
DA
01
C8
FC
29
4C
17
A2
09
DD
0E
23
09
D3
16
07
DF
D6
35
0D
FE
C6
2F
2E
CE
C7
EB
B3
06
24
34
17
21
B9
EE
D7
09
07
04
10
1F
02
06
3B
0A
9D
1D
0F
2A
18
1C
BC
02
00
0D
C8
EA
FC
2D
14
D5
7A
25
D3
D8
57
D8
0F
03
3B
00
F6
20
DB
2B
E1
F9
27
D4
E9
2D
0F
CE
CA
B6
E1
15
10
0A
C0
1D
D1
0F
FC
03
ED
D0
1F
11
F4
E8
DD
1C
E6
0C
3B
3F
4C
20
28
FB
B8
07
EC
DE
2A
F6
5A
EF
EA
ED
EF
C7
BB
2F
F8
F6
0B
1D
21
FC
E5
C0
1B
25
F8
DA
06
FB
AD
14
FD
E9
E9
01
FE
CF
FA
3B
03
04
16
D3
EF
F3
E5
10
F3
E9
F3
25
2A
13
DE
1A
E8
4E
F0
12
08
F8
D0
23
06
15
F7
19
EA
05
0A
EB
01
18
FD
F2
47
00
11
C9
D7
D5
E0
E1
E8
0A
13
01
DD
1D
18
08
0B
3D
FD
35
14
34
2B
16
58
F1
13
C0
02
F6
1D
42
26
01
F0
C8
E3
D1
F0
3E
D8
26
09
F7
31
CB
E1
25
16
12
3D
F6
D6
FC
3A
00
FD
19
E6
E5
11
EB
1A
DE
F1
22
AD
11
F4
DE
D5
36
25
D2
F8
F6
FE
20
9D
AE
E5
4A
5C
0E
07
AF
D4
00
C6
34
F5
E6
15
24
18
E4
FA
0D
0B
A3
FB
07
11
0D
F9
B8
22
E4
01
DD
CF
19
F7
F6
E1
1F
F5
17
23
0C
1A
19
DB
2C
39
18
05
25
2A
F6
40
17
EE
0D
09
AF
CE
23
FD
03
0C
9C
D4
F0
14
DA
F1
02
DE
D7
FF
EC
DC
0E
D2
EC
CE
FD
B7
E6
DC
33
E6
12
27
D4
16
9E
02
FB
09
D8
F9
00
D6
04
E6
FE
DD
F3
F4
08
56
FA
04
10
57
FC
28
30
F9
D2
DD
0E
F5
C7
EF
13
E5
D4
11
0A
46
E3
EA
BC
FD
08
5B
E2
ED
CE
CF
03
F9
FD
B7
AD
DC
D9
F6
DB
E2
F7
0C
2D
04
C9
DE
CF
F5
2F
FA
CF
FF
DD
1E
00
30
F7
F4
F9
F4
F8
C7
03
09
34
DA
E1
D6
1D
ED
D8
38
DD
FB
F5
F6
13
29
3F
F5
BB
EA
E4
0E
66
FA
FA
32
16
3F
EE
19
24
F4
EC
E9
08
F5
DE
09
16
07
DC
0D
E5
34
44
32
1D
15
AE
2A
4C
2D
C4
28
FB
EC
DF
18
2A
FF
0A
CB
FA
EA
23
0C
EC
F1
FD
0E
E6
F4
C8
13
F3
E2
16
08
EE
CD
02
03
F6
FF
DF
03
02
0D