CE
26
12
0D
31
3D
09
FF
05
CA
FB
F5
0B
18
15
28
F6
13
F5
E6
E1
DC
E0
FE
FD
19
F1
EC
0F
11
C2
ED
FD
11
05
F5
36
33
CB
E6
C3
11
43
E4
19
08
E5
10
FD
D1
FD
03
26
67
31
18
1C
05
BD
0F
0F
CD
F8
4F
F9
65
0C
F7
FD
1E
0C
09
D2
03
F9
F7
E3
06
C8
F6
EE
19
F6
EE
FE
1F
EA
C1
09
09
E5
F2
3A
DD
3A
02
07
04
D3
BE
AC
F2
27
11
17
F2
F2
C4
EE
28
FF
09
19
F0
1F
E7
ED
17
08
05
24
C1
09
32
1A
E1
17
2B
DE
FF
D5
C0
F7
0B
0D
FA
0D
16
D3
EE
09
DB
03
01
2A
CB
0C
37
10
01
07
14
02
15
32
27
0E
12
F2
17
04
FE
08
F2
13
21
F2
14
1B
FA
FA
15
01
06
1C
25
35
FD
04
D2
DD
0C
2C
0B
02
2D
DE
1A
E8
08
1D
DA
08
25
06
C2
E3
EF
D9
ED
09
1D
E5
19
03
EA
45
E4
0A
EE
CD
23
CD
A3
0C
E2
04
1C
0E
F4
F1
34
CB
D9
B0
0E
E6
0D
E2
FD
EA
F5
F9
D5
E5
1D
05
FA
05
0C
0F
01
00
21
3B
F9
C9
14
28
E6
0D
16
0E
25
F3
C4
18
02
18
E6
23
F4
16
41
02
1D
01
F5
D7
CC
11
E9
14
FD
C8
25
D7
13
09
F6
D9
0C
C9
B2
1C
D1
CD
F1
06
05
E5
FE
0E
24
08
EA
02
12
D3
F4
D7
F7
E2
0A
08
0D
0A
E7
21
35
D5
16
ED
FE
FC
E1
38
DB
D5
2F
FB
1D
04
16
02
09
FE
26
C4
DF
FB
F9
ED
C2
D9
D7
F4
D3
D6
18
0C
0B
E3
08
0F
21
B8
27
14
1D
D3
E1
C9
0F
0C
2B
C0
E5
DD
10
F4
09
E1
10
F0
F9
02
18
DF
2E
D0
B6
FF
10
F9
D6
D8
32
D7
CB
E9
F0
F8
33
20
EA
04
BB
E8
08
0C
13
1D
23
FB
49
DD
CD
11
D1
DE
DD
05
F3
F6
3E
F3
DF
E4
B7
0B
08
17
F5
30
0F
D8
15
EB
DD
C5
D1
FF
F1
19
FF
DE
C6
F0
EF
F1
E5
2A
FF
D2
04
FF
23
C9
0D
FD
1A
F1
B0
FD
F7
DC
16
EE
FD
05
E8
02
14
16
17
DD
1E
E7
09
DC
10
DF
E2
FA
F0
F2
EC
F9
F8
FF
06
29
F9
E6
0B
07
E8
C1
F1
08
D1
10
00
26
F3
F6
F2
2D
F4
BF
27
BC
FE
34
F1
D0
18
06
BF
0C
2D
E5
F0
FB
F2
EA
EC
F9
0D
CE
E6
EE
08
F9
FF
0E
D6
10
F8
C7
C6
F4
FF
DC
45
1C
1A
D1
DC
FE
E0
E9
E7
50
00
0A
2C
C2
11
EA
1B
0B
09
0E
DF
03
38
24
0D
2F
04
E8
ED
01
E6
F1
F8
FC
F1
1D
F2
D5
03
0E
F7
1A
09
FE
CB
3D
00
B4
05
36
31
1E
20
F8
08
02
34
F8
09
D0
16
FD
12
07
0F
1B
F0
19
FC
DA
1E
2F
F3
E8
F6
C9
42
EC
D7
F5
F5
DC
0F
DE
1B
33
10
F8
C9
F1
CB
1B
FF
F9
E7
1A
0A
29
11
D3
28
07
0E
E2
08
F7
0A
2C
19
44
F7
24
F6
1F
21
1D
33
4F
0A
09
F9
F3
4B
EE
07
BB
15
E0
F6
EE
04
13
09
58
DE
DF
15
EB
28
F7
00
DF
E6
2F
D0
02
3B
F0
E2
09
E2
C1
23
13
16
1F
F5
0F
12
F4
12
2F
0B
FB
2A
EE
EC
ED
E2
EC
29
B4
DA
C6
1F
BE
F3
E9
DD
18
1C
40
C8
1A
E9
20
1E
26
E8
08
08
18
08
F6
1A
42
1C
EF
00
F4
AE
24
12
DB
33
CF
0E
E5
F4
16
FB
FB
25
50
EF
26
CB
08
18
17
18
F7
08
20
39
15
09
36
F0
11
3A
D6
E4
0E
05
39
CB
D8
BD
2E
23
F5
EA
9B
F8
CB
F4
F9
0A
F1
06
CF
D8
2A
FB
2F
22
06
2C
06
E7
E6
C3
95
FD
FF
D9
28
22
13
18
FB
10
FA
1C
38
15
F9
FF
F5
0A
0F
F8
F1
1B
18
E1
2E
EA
04
00
33
0A
F9
F2
BC
FA
03
2A
29
E3
28
E6
FA
0F
4A
0A
25
EB
41
DC
F0
26
F7
CF
03
1E
D6
D2
E7
1E
2C
0D
12
C7
FA
1C
EE
38
2E
DE
02
03
EF
FE
29
DB
FA
1E
FC
30
FD
0A
00
E0
18
3E
17
0C
11
16
1A
04
E2
1C
46
C4
F1
D2
2F
DD
12
E8
D7
E5
13
12
00
24
06
0B
07
12
13
C4
2E
13
0C
CC
0B
E1
FB
EA
F2
22
1B
0D
02
34
EF
E4
37
16
EB
15
FF
34
0F
DE
50
DD
0B
1F
05
0E
D6
0A
31
14
F2
F8
0B
0E
F1
FD
FB
44
F5
10
23
2A
DD
14
3B
F0
FC
1B
13
0F
B7
11
EE
00
14
3B
FF
E9
C0
13
FE
E9
1B
E5
32
D1
3B
D6
08
EC
D1
20
1D
EF
11
E6
03
08
E2
D8
05
D5
D5
01
F9
1F
F3
1C
F9
21
08
03
D7
12
C8
F5
E2
00
E5
EE
E5
EA
F7
F5
00
D9
DB
E3
24
EF
F2
17
C1
21
D6
E4
36
20
FA
05
E8
F7
E3
F4
B7
E3
25
07
37
2F
05
E1
06
F2
06
E9
EB
E0
F3
D8
02
4C
37
F4
E1
C8
F5
E7
2B
00
09
F5
11
E1
1E
17
E9
0E
05
D6
F5
EE
EE
0B
1A
1A
F3
04
DB
DF
E3
F1
EC
46
E7
E3
1C
F0
FF
1A
FB
1F
24
9C
E9
E5
0D
1C
D4
EA
D0
DF
FF
04
FE
AA
E8
15
EC
14
FB
0F
DB
FD
0B
DD
1D
2C
ED
FB
DF
CA
0F
05
D8
28
20
0F
0B
0E
E7
0D
FF
16
F9
19
1B
FB
E8
F8
F6
0C
EA
2A
D4
31
0D
1C
FB
EE
CB
EB
E1
EF
03
F2
00
F4
1B
E3
F0
2A
2A
3A
1F
3E
08
E3
DB
EF
E4
DB
03
19
EE
E5
EB
07
E6
27
23
F5
20
D7
10
08
1E
0C
E2
E1
08
FD
13
FB
F1
22
F6
EF
FD
37
E5
E8
25
07
02
1F
0B
24
26
22
0C
D7
0C
15
FE
4B
2B
F0
F8
EE
DA
11
25
DF
34
F4
05
E1
F1
E4
D9
CE
DA
B9
D5
1A
30
0A
F1
07
12
DF
1A
05
27
F9
1C
08
28
0A
FB
1D
2B
F0
00
39
4B
DD
1A
37
F9
11
32
FD
31
F9
4F
53
F8
14
16
DF
3E
C7
14
09
04
F9
DD
19
2C
15
14
C2
39
0E
FD
04
00
10
F9
05
DC
18
17
F3
39
D0
D3
15
20
1E
0D
FE
61
ED
B0
F3
FF
FE
FD
D0
1F
F7
EF
33
46
FE
19
C5
02
0D
06
34
D3
DF
1E
E2
05
07
2F
03
EF
05
F1
EE
09
E9
02
F5
F5
02
F4
F6
F8
0B
F5
0C
D5
F8
11
F3
EC
CE
02
F6
30
1E
EC
11
26
0F
11
10
FF
ED
1C
ED
08
1E
24
41
FF
53
06
C4
13
01
FB
CA
ED
4D
02
DD
13
19
2A
D5
04
E7
E5
F8
0D
67
28
F5
47
12
E7
06
0A
0F
2D
D9
01
2E
E1
31
06
EA
E5
00
1D
F3
34
1D
DC
23
1A
E7
03
B9
C9
FE
F7
06
16
EC
17
FA
2C
E7
2D
D3
00
EB
11
E7
FB
EB
FA
02
F4
E1
F8
03
ED
15
24
13
26
18
F4
28
ED
00
0B
03
F8
EE
D3
F8
1B
45
42
FD
1A
1C
1A
0C
2C
13
F2
D8
03
F8
D8
F8
09
02
20
E9
09
1B
E4
26
51
45
E1
19
F1
12
15
08
EF
03
D9
CD
F9
BE
F2
03
2D
50
2E
05
DA
E1
28
0E
2C
0F
E3
07
BE
F3
2D
F0
0B
2A
F0
04
FE
18
3B
FE
FD
EC
3A
17
CF
D3
17
F2
F6
0D
FA
1A
0B
EF
16
C6
B5
05
D1
10
5F
1A
48
D1
FB
1E
EB
04
EE
C3
11
F0
D2
1C
ED
04
E8
18
04
12
05
B5
18
F9
11
11
F6
F8
F2
11
C3
FF
E8
F2
0E
3A
15
22
01
13
21
BD
DD
23
CC
04
F2
06
EA
0F
25
2D
0F
B5
EA
23
25
15
EE
F6
24
F6
DD
EF
F8
FA
50
1A
C5
1E
BE
F6
34
15
CF
09
BC
BC
C1
0A
E5
E1
EE
46
F4
E6
29
FD
DF
F1
09
01
0F
F4
33
17
EF
D8
FD
44
FC
DE
01
07
10
F4
E6
FD
4C
FE
96
F3
00
BA
F7
E3
F3
EE
17
11
CB
06
1B
1C
06
B1
EB
D4
CF
44
DD
E1
07
09
04
DB
2F
3D
F5
EF
E0
01
FF
F5
EA
C9
17
FE
3E
F1
F1
12
B0
E8
0E
F4
F4
F5
E5
FF
32
F4
F9
DE
F3
F4
00
D1
EE
20
E9
E7
06
02
47
EF
F1
13
E2
F7
0F
FF
F8
26
D7
D7
19
DE
CE
20
0E
FA
DB
C4
1F
06
DF
E7
F1
34
C7
12
DD
1A
26
1A
33
10
51
54
64
1B
12
FB
EB
E2
F9
09
28
1C
F5
D4
D5
F5
3B
38
F4
17
E7
FA
CA
01
1E
12
E2
05
CD
DF
EB
E2
0C
CB
DA
EE
07
16
0B
4D
35
2D
1C
2E
CD
D9
D5
F5
E1
EA
DE
FE
D3
D0
0E
B8
F0
D1
F5
0D
0C
0C
DA
0E
1F
0E
03
E5
0D
20
EA
08
FE
14
E3
0E
0C
EA
16
1C
1B
22
CB
D0
D5
19
19
1A
00
0C
C3
0C
E8
BF
1A
08
1C
EE
D7
03
00
EF
EF
F3
E1
35
22
EC
EA
14
FD
D8
03
ED
20
1F
26
50
09
F3
8D
FB
3E
E8
01
E2
EF
D6
ED
10
CF
D5
FA
18
4B
FF
FA
F1
00
E8
0A
F8
D7
11
17
0E
04
F2
0D
14
FB
22
F1
FC
E7
2A
DE
F5
06
EE
16
AF
02
5A
28
2A
EF
04
F5
DD
BB
CD
E3
06
E2
00
0E
27
F8
BE
EA
F9
DA
D8
22
3C
5C
22
E5
F4
10
1F
E3
F0
DE
F0
E3
FB
E8
0B
2A
1F
D2
05
F7
21
1F
17
08
F8
EF
CC
E8
02
03
03
02
20
F1
DF
EB
1A
D5
06
40
20
FC
15
F5
CE
E0
E8
1D
C5
1A
11
E2
EF
EE
E0
C8
41
E4
F9
5B
08
F2
D5
FD
B8
C1
FB
F7
F7
C9
DD
F0
23
E1
F3
E7
25
32
E2
41
12
E5
08
EC
BB
C8
0E
F3
FC
2F
1B
4A
E4
07
2E
24
3C
24
DE
CB
EE
EC
F6
E4
ED
05
FD
0C
F7
D2
E4
17
48
2B
03
E5
E0
DD
D6
0F
EC
25
CE
EF
BE
23
29
18
0B
20
12
CB
15
BD
E0
07
4B
F9
E6
2B
0D
05
DD
F7
EC
3C
23
06
10
25
0E
3F
18
DB
1E
D6
EA
09
13
21
DD
15
DC
1B
1E
F6
F3
EE
CD
50
EC
24
E9
C8
0E
0E
1D
26
0E
F2
CD
FA
F6
15
1E
17
A3
D7
F9
0B
C7
EB
2D
E1
00
DF
0D
F7
02
F1
F2
26
1D
F9
DC
16
0E
F8
31
02
E9
EC
09
1E
F9
09
DC
CA
DC
DA
F0
02
F5
C2
05
E8
E1
27
94
D8
CF
0A
A1
09
28
1C
1C
D4
CD
3B
D4
D8
2C
19
09
F9
33
20
FC
2B
FB
F0
DC
1E
E9
EE
04
F6
FF
0C
FF
ED
BE
0B
1A
E1
00
D3
FD
16
2B
2C
E4
E1
17
F6
D9
07
18
07
04
29
0C
FC
E2
27
D0
D2
14
0C
07
F1
23
33
46
F8
D8
D2
0E
F4
EA
E1
B8
F8
25
F9
12
1D
39
07
F7
FC
F6
ED
B1
B4
C1
F5
26
42
F3
FD
30
03
16
1E
F0
2A
16
DF
FA
0E
CD
C9
FE
13
EC
23
FC
42
07
EF
20
EF
10
06
17
EE
1C
ED
0F
28
F5
21
2A
EA
10
D1
03
E9
15
06
C7
DC
3C
E6
1D
15
2A
39
CF
C5
D7
06
0B
1B
24
FF
E8
FF
BF
FB
E8
0F
EE
00
EC
E0
FC
D0
F6
BA
10
EF
F5
26
FD
EC
14
43
E1
E0
EE
21
11
D9
FA
11
FB
E8
0F
F7
33
E1
CA
ED
25
2C
D1
31
F9
BC
16
43
F0
06
E5
03
BE
25
D8
31
E6
10
17
FD
08
36
0D
F5
EB
F6
10
24
1C
F3
FB
EE
05
0B
53
0F
F9
B2
29
19
FD
F8
23
CF
F6
53
F7
04
15
F9
08
C2
E8
D5
03
E9
CC
0B
2A
EB
12
07
E0
1B
FD
11
F3
E0
28
F3
FB
00
EF
1C
23
09
FC
D0
00
0E
2A
D6
2E
09
06
0B
F3
32
00
1B
F0
BD
3F
E9
FF
25
E6
11
E7
4A
29
17
0D
5F
0F
03
F5
1E
CD
03
01
1C
18
1A
C9
18
09
38
69
DD
0F
DB
10
D1
3C
0B
10
F1
D7
DC
1F
FF
D7
CF
DB
DA
04
3E
E6
FF
0E
D9
4C
14
BF
EC
01
FF
11
1F
04
10
EB
0E
08
AF
4D
12
04
FA
0F
0C
E5
EB
D7
1E
1C
04
FB
FC
E2
FA
19
F0
2A
EA
FF
21
0B
F0
2E
C2
0E
EE
3A
E2
07
21
25
DF
3A
F3
20
10
F0
FA
35
2A
C4
0F
E5
0F
FD
F1
06
ED
45
0C
59
DF
29
D4
07
3A
D9
21
02
05
0F
E2
E5
03
23
07
20
ED
B8
18
01
17
01
23
DE
CD
0A
FD
F3
EE
CD
FF
00
05
19
DC
F3
EB
1A
EF
F2
13
0A
E9
01
CC
06
15
02
0A
19
F2
CB
2D
1B
D6
DC
04
FC
C4
2A
18
FF
FD
DF
13
D3
0A
F2
D9
29
EE
E7
1B
E3
15
1A
00
FC
D0
4B
0C
D5
F8
DE
F1
FE
14
9C
0F
16
D7
38
42
35
F4
E7
F2
3A
14
D9
32
0E
E0
23
17
15
F7
12
15
EB
06
0B
11
E7
23
01
18
FC
14
02
F1
3B
05
07
0F
BA
F0
00
08
39
0D
E8
EA
04
C3
FE
24
02
E1
F2
5D
11
C9
E1
3D
E6
CE
1A
2D
0F
1D
18
21
1B
01
B8
20
F1
23
EB
17
0B
04
01
06
B5
16
1F
0E
2A
0C
F4
59
46
DA
16
EE
45
2B
1F
03
C3
EE
E9
E3
DD
E5
F7
24
10
1E
0E
EE
23
D5
F8
DC
F1
1C
02
D5
C1
F8
D1
E5
2A
ED
2B
14
16
23
18
18
3A
B1
F7
04
22
F0
FA
23
ED
ED
F1
38
31
2E
07
2F
23
0E
DD
0E
4C
16
22
06
14
F3
04
2C
C8
11
07
E2
EC
F5
DF
00
26
77
35
17
E8
FA
07
CF
F5
F2
2F
27
40
F9
12
F0
22
37
29
F5
07
FD
FD
14
ED
04
09
FC
E2
E8
21
F0
1C
10
18
3A
27
31
06
E3
19
0A
06
07
0C
1E
E6
D7
09
F8
D2
1E
15
14
0A
E8
07
FF
FE
F3
39
F6
E0
3D
17
19
FB
0B
32
34
43
ED
E7
2F
05
CE
0F
11
1D
12
3A
07
05
C0
12
FA
E8
0F
E8
33
08
02
39
FD
31
D4
F0
C4
20
F0
E6
F9
1A
FA
D7
4B
3E
D8
31
10
EB
E4
EF
02
23
0F
24
FE
E2
45
29
F5
E0
14
E3
F8
DB
C3
12
10
E1
1A
28
DA
07
28
01
2D
1A
EB
FA
F5
DC
28
14
21
1D
BE
39
E8
DA
C2
10
DF
32
2B
DA
C8
DF
F6
1F
34
1E
FE
E0
20
EB
26
ED
FD
FC
E0
3E
D6
E0
03
2D
14
35
3E
31
1B
15
DE
F8
34
F8
D7
04
C5
0F
17
1E
54
3A
EA
0D
BC
C5
17
E6
1D
2F
14
EE
08
F7
35
11
28
2B
FF
F0
11
EA
23
D9
13
FF
29
F9
13
FA
BA
F8
16
C7
FF
10
05
EE
BE
13
17
E1
E0
0C
01
F7
2A
FE
F8
07
EB
03
0A
1A
25
F0
42
ED
1C
FE
09
F8
E4
04
01
FD
CF
17
10
DF
23
F5
1F
F6
23
06
DE
1E
3D
0F
26
0C
F8
F6
F1
E1
DB
23
11
43
1C
0B
01
D8
F9
22
2E
FF
00
01
CF
09
E1
31
30
EB
25
E8
33
0E
CB
F1
23
FB
E2
2E
35
E9
F8
E5
E5
DB
F6
DD
F7
1B
FD
FA
14
00
F0
15
11
3E
1F
E3
D0
F9
00
1E
27
16
ED
1B
1D
DE
EB
DA
03
23
F6
F8
D9
AE
10
02
D8
F0
00
1F
2B
32
43
04
D7
1C
19
E7
F7
00
E9
3D
08
0E
D8
2E
EE
33
F3
21
04
28
F5
26
1C
3D
F9
DA
EF
EB
18
07
30
3C
25
03
0A
16
F3
1A
D4
05
23
12
11
F4
09
00
10
32
06
20
E8
27
F6
55
EE
0C
EE
DF
EE
E5
F8
EA
29
DC
07
38
AC
D6
C4
2D
F0
FC
1C
CC
04
05
05
ED
DD
D8
F0
1D
FB
02
F4
1C
FB
FA
FB
D8
DF
D3
CD
E7
1E
1C
09
0B
D3
00
F0
01
2E
02
F5
28
FB
5A
EB
1A
13
1C
F1
F2
29
23
FC
30
EB
ED
E7
48
4A
AD
51
E5
E6
14
F0
D4
1E
16
DD
00
E3
CA
17
0C
D7
F4
08
06
16
32
E9
FB
18
1C
F8
F1
F6
FD
0B
11
4B
42
E7
06
30
E7
27
33
04
11
E5
09
20
04
1B
3F
DA
1C
F7
07
14
00
2C
E6
0A
F2
16
DF
17
F3
0D
28
08
E2
DC
F2
F1
CB
08
07
FF
18
19
3D
12
F0
46
04
D2
12
12
FE
FA
F4
E5
08
08
02
0F
39
1A
F3
31
F9
EC
0E
27
F0
00
EB
98
22
FA
F2
02
2F
07
DE
EA
FE
D9
3B
16
14
31
2D
F9
E7
0B
21
2E
21
ED
D6
0F
E2
FF
F5
3F
30
08
F7
D8
1B
0D
BB
3A
9B
16
09
FD
DB
08
F6
04
01
FE
ED
E9
E8
EB
33
BD
E2
0B
25
FD
F6
1E
08
F4
FB
05
1A
26
EE
F4
F8
DF
F5
ED
D1
EF
1F
1F
FE
C9
FD
EF
EE
DF
12
16
DD
05
DB
CB
E2
E8
CD
D8
FC
DA
E4
0C
14
18
EA
24
E8
FB
E9
DB
E3
D7
11
E0
E6
02
E4
39
16
22
E6
FC
F8
10
F5
D7
E4
D3
FC
4A
08
FA
F0
DF
D1
05
07
F6
F6
D2
E3
F4
F2
1D
E6
F5
D5
1A
EF
DC
F9
0D
D5
3A
E9
D8
1F
E5
DE
B6
37
EB
D5
E0
DD
FB
01
0D
4C
0A
EB
02
40
1E
E0
F2
02
10
BB
0E
22
ED
F8
E4
12
E6
16
18
D5
00
3A
D0
E2
D7
02
05
FA
E2
EB
E1
F8
0C
26
1E
25
20
F3
9D
07
F4
EB
13
D6
DC
FE
07
04
15
13
2E
1B
2A
1B
0A
B0
15
23
F0
E0
16
FF
1E
07
E1
00
3D
13
E0
09
F4
0A
18
DF
1B
23
2D
2D
0C
17
D4
2C
F4
BC
F6
17
E1
01
11
09
1F
F8
DD
E6
06
FD
F9
F3
C7
21
E8
0F
F8
BB
EE
C9
C4
D9
FF
1A
C2
2C
F3
E6
08
C6
14
06
07
0E
FB
1B
BD
11
AE
05
CD
1F
00
E2
FF
E1
C2
22
DF
EE
E9
F3
3E
E0
DB
3C
CE
A2
C1
C1
20
FA
EC
C4
44
EA
04
F0
D6
07
DC
11
1A
EE
AA
DE
08
15
E0
0A
0E
C0
F9
07
FA
FD
CF
29
FC
E1
2C
0A
DD
EE
FB
FE
FB
FC
0D
0F
01
06
FA
00
0A
F0
0E
06
23
0F
E9
C5
0D
47
E0
F8
FA
25
C9
E2
1C
E8
EB
FD
11
1F
F4
0B
1D
DB
D7
F1
FB
D8
13
21
04
06
F0
13
FF
F6
C6
EF
0A
09
FC
E2
BC
D9
11
E7
0D
F6
0D
F5
07
EC
04
F3
E2
00
F7
C5
DC
2A
13
E9
E8
F9
FD
19
DC
F4
2A
03
03
D6
E7
40
31
21
1C
F6
F9
EC
13
E7
EC
07
F8
07
12
D5
05
EA
EE
05
DA
E6
44
DE
FF
F8
E7
0B
0C
F2
35
B1
3C
0A
51
11
22
E8
FB
3D
DD
25
18
E1
15
2F
D9
E6
22
4F
0F
C8
10
C8
CF
E4
15
F7
29
FF
F6
F3
13
DB
37
15
01
12
48
1C
FE
F3
F4
0B
05
07
ED
FF
28
DB
02
2D
D7
0D
17
1D
11
1D
F4
F1
F2
E0
24
FE
D8
3A
FB
E0
EA
ED
20
06
DA
EF
EA
F9
2E
0F
C7
EC
52
41
F7
FD
E8
0E
2D
01
2C
F6
D3
EE
E5
EC
FD
17
1B
34
FF
FC
19
E3
FB
03
17
21
D9
02
D6
E7
1A
14
17
E3
2C
E3
EB
FF
43
15
01
D8
D7
D7
0E
FA
E1
38
1B
F0
23
0B
FC
2B
2A
2A
17
2F
E6
0E
E1
10
2D
02
0E
E0
DE
EE
DF
00
07
37
13
EE
06
D4
D8
0F
ED
37
E6
F6
E4
11
11
EF
EC
38
E9
F0
23
E8
08
14
21
10
0D
0A
DD
04
F4
19
DA
12
F6
D7
0B
F0
FC
F1
07
05
DC
2A
DB
C9
D2
FC
10
F3
3F
0F
01
5C
FE
12
11
50
DE
19
35
0C
05
D4
E3
00
2D
F7
C5
F7
29
02
ED
D5
2E
01
48
E2
0F
35
F8
C0
12
D1
09
FF
1A
37
22
EA
09
BB
09
03
F9
D3
FF
1E
F1
E7
13
3B
2A
03
1C
D9
10
F4
28
F0
2A
FD
CB
07
3A
0B
F2
28
F2
EB
DD
C9
04
0B
F8
06
F7
38
ED
19
D0
42
ED
F8
9B
F9
17
F6
26
06
1A
1D
F4
12
F8
02
22
12
31
ED
F2
0A
2E
0A
E5
C6
D6
E6
EA
40
55
C5
03
DD
CB
28
DD
0F
CD
1B
25
FC
EB
16
17
4B
AC
12
0E
E0
1A
3F
16
C6
EE
FE
EA
DB
E5
F9
CF
0A
F0
F8
31
FF
F5
EF
E1
1F
FB
05
13
F1
D4
08
EE
F2
B2
A5
0E
1B
FD
DD
25
16
3D
06
2A
24
EE
2A
E1
D6
2E
E2
28
F2
FC
0A
ED
3A
F7
FA
09
EB
25
18
FF
28
33
32
13
25
21
F7
F4
26
0A
0B
3D
04
D1
DF
F6
F8
EA
1F
08
EB
0E
E1
DA
24
FE
E8
13
11
1E
22
E2
22
E3
15
E1
07
B7
B4
20
DB
1D
25
04
3A
C9
03
19
1B
10
18
FC
20
09
08
03
2B
FE
DC
CF
0D
00
E5
FF
D5
E0
19
27
39
15
C5
02
E0
F2
D8
41
09
00
D9
10
EC
3D
27
24
F5
13
27
FC
CE
07
DF
CD
FC
26
27
FF
E1
0E
29
1E
D9
EF
EC
C9
16
14
0E
1A
3D
D5
29
EE
FA
E3
E3
F2
F1
36
D7
EC
04
FC
BE
14
1F
F8
F7
DD
35
F3
23
D3
FB
1E
E9
3F
5B
54
E3
2D
CE
13
FC
2D
DB
E8
D5
EC
49
DE
C7
D1
25
20
DB
18
D8
FB
10
FD
11
F7
F6
DD
EE
1D
29
2E
D4
0F
16
FA
E3
0B
D2
D1
F1
23
DE
DA
2B
07
EB
2A
1F
E4
07
0B
04
CD
34
EA
24
F6
13
01
EF
04
02
07
F9
F1
A2
EE
11
3F
D1
13
0E
F5
C1
B9
0F
F6
0C
F3
F3
05
E8
F4
F1
F8
DC
0A
04
10
DE
F9
11
0B
FC
F3
F3
0C
E3
D4
EC
E1
DF
19
E5
DB
0D
E6
1D
09
EE
D6
1C
C8
EE
F8
E9
F5
F0
E1
19
06
F6
26
02
D6
09
20
E0
0E
1D
EA
F2
06
15
CE
1A
C7
0C
0E
0E
F0
10
13
17
1E
F9
C8
0A
FF
2D
00
3C
CC
E9
12
D9
02
11
15
1A
FF
CF
16
0B
DF
DF
EC
FE
10
FC
C1
DF
25
19
03
BF
13
1E
E4
BF
DC
E6
E2
38
18
07
F4
16
1B
15
D8
D7
FB
14
E2
05
DE
E2
ED
06
D9
0E
13
05
F3
01
30
F7
F6
01
27
0F
3A
F0
FF
2C
00
11
23
17
D7
FE
09
ED
05
23
2F
06
06
DD
06
44
DD
F0
07
FF
4A
F8
F5
0C
03
C7
20
11
00
06
08
16
EB
06
06
07
04
FE
FB
FC
D7
E6
E3
FC
D4
10
05
C1
DE
EE
08
E1
E9
DB
16
18
BB
44
B1
EA
E0
DA
25
0B
25
DA
EC
06
E1
F5
F0
29
EF
DB
0B
DA
E9
ED
0D
05
CB
1D
1A
16
04
EE
02
E6
D9
01
1D
E5
EE
0C
FF
13
F3
D0
34
03
F0
E9
5F
F6
DD
2D
06
E7
1D
23
1B
FB
10
F5
3F
CD
10
05
1C
06
08
12
0C
10
FD
EE
23
FD
00
F3
EA
11
13
D8
10
DA
E0
13
F3
05
20
1E
21
CC
15
00
1F
EE
43
F8
2C
1A
F1
1B
F1
F7
08
B5
1C
0D
01
00
EB
17
BF
2D
E7
1D
DF
D9
0C
02
02
E7
C0
18
FE
D9
FC
01
40
2A
54
03
DD
04
09
17
EA
30
1A
E6
0D
FA
1E
10
EC
D5
31
FF
C9
21
F0
BF
15
12
1D
FD
C9
CB
28
1D
08
E3
1B
1F
31
1C
24
11
FD
FE
0D
F0
FD
0C
FF
28
3C
3C
FF
10
E1
F4
4A
25
27
F3
09
41
06
01
0F
08
F4
05
F7
F8
E2
DF
D6
20
19
DD
1E
FA
EF
EF
EC
44
FA
A9
3C
FA
27
2E
03
F0
DB
1C
01
FD
02
19
E0
EE
F3
19
F5
13
2F
DD
0E
09
F8
07
E8
08
D1
05
DD
02
EE
FC
FD
E5
FC
0F
BF
1B
EF
C1
3E
21
09
26
EE
18
1B
16
00
F1
CB
02
34
05
3C
E1
05
38
13
37
BD
A3
3E
F5
F9
13
0B
07
FA
02
F7
D7
F0
01
FC
52
23
1E
C6
1F
B4
0D
1F
FA
FE
3B
18
FE
34
ED
F6
E5
F1
1D
17
DF
46
0B
DE
26
E4
F5
24
07
1B
11
32
EE
37
49
CE
D8
AF
2D
F9
1C
04
DC
03
08
2C
D1
0E
00
00
E2
D8
2D
E6
D8
11
28
2E
1E
24
10
CC
D8
E2
1A
E2
2E
ED
E2
F6
04
F5
B8
CD
0B
FA
28
06
F6
4D
FB
F0
13
FA
CB
F5
EE
B8
2B
24
ED
00
0B
F8
15
0A
0C
0A
14
41
DF
12
10
28
FD
1D
00
02
DB
EE
EB
0E
FD
0D
28
E7
2D
02
F2
FF
DE
E3
AD
EE
AE
04
0D
22
EC
F2
EA
E7
01
27
24
2C
DE
E8
E3
C8
1B
01
F1
EB
EB
12
EA
CB
0A
DB
EF
21
D0
DC
FE
1A
B5
F2
10
E2
2A
14
CC
EE
11
F5
28
3C
00
E4
DB
12
18
16
F4
E1
E0
FE
2D
0C
E4
09
F0
F5
FE
04
E3
38
08
DA
F5
0D
23
24
10
E0
1A
F0
0D
46
42
D6
2E
FF
E5
F3
3B
14
08
F6
C2
06
D2
E2
0B
F7
F3
18
1D
0D
12
24
E0
2A
D5
07
08
15
A9
E2
1E
0F
16
F5
47
07
D2
03
1A
32
0B
06
E9
29
EC
C0
EC
F8
F4
DC
05
D4
EE
FB
10
F5
A8
16
D4
ED
FC
F5
16
C4
AE
DE
FC
07
E0
D3
EE
1C
FE
05
06
43
F7
2E
23
A6
C4
0A
DE
E3
FC
28
29
EF
13
E1
B7
26
F0
38
04
D5
DA
F3
EE
FE
D2
E3
F3
FE
F0
FC
DF
D7
01
00
CD
B2
2E
E7
12
DD
2E
2F
AA
00
C9
02
07
DF
13
3A
03
DF
E8
EC
2B
F2
1D
33
29
CE
34
0E
09
DC
11
05
0D
0F
1C
DD
C5
EE
25
0C
E6
D9
E1
EC
E2
1F
04
1C
E4
1B
FA
11
E6
0A
12
B7
C2
DF
09
C8
03
12
C8
09
08
25
FB
DA
EB
09
F4
04
FA
C6
36
0B
1F
F0
E6
0A
E7
E9
FB
F1
09
F8
C1
C7
E7
DC
01
D1
E5
CE
07
D9
E2
EA
0E
1A
DB
F6
19
08
2D
DE
FE
FE
DD
4D
1E
04
FB
CB
F2
12
EA
10
F0
03
0D
EA
3E
E7
06
F6
D0
F9
FF
DF
F1
03
FB
40
29
03
FC
DB
D3
2A
10
0A
21
36
19
03
1A
CA
1D
38
F6
1F
C9
F9
04
FC
50
E3
E9
27
1A
EA
29
02
24
F7
16
19
0E
D1
18
EA
14
21
27
1F
0A
10
32
0E
C5
E0
10
3A
0D
32
C6
FD
EF
08
03
1B
F0
08
EE
E2
D4
E4
FE
28
DE
FE
18
25
18
1D
FF
03
1C
1F
F4
05
E9
EA
1E
00
0D
30
DE
D7
FA
ED
23
08
1F
F5
0E
27
DD
D2
00
35
19
C1
FA
CA
10
3E
F9
2C
DF
F0
F4
BB
F8
25
DC
4D
16
07
2F
43
17
11
18
DA
24
00
08
E1
EE
2A
24
08
04
05
F1
D1
EE
03
FB
D4
FD
F2
1F
AE
DA
EE
E7
F1
03
EC
05
19
0F
20
F9
DC
15
E5
40
E0
00
50
1F
14
F5
D2
13
DB
DA
05
38
45
07
E9
0E
E1
3B
F6
D4
06
03
0D
24
18
E2
CE
F3
FF
2C
E3
DF
FA
38
F5
0F
C9
ED
F5
F6
C8
31
FB
2A
EF
21
E2
DD
13
1D
EB
B0
E5
33
09
F4
0B
19
DC
99
C6
07
0C
0E
FE
18
E2
1D
04
10
4A
25
CD
F7
F4
E3
19
F6
F7
20
1B
14
1E
BE
F6
D9
03
FF
F4
0D
E4
DF
FD
E7
15
E0
15
DA
E6
CD
EB
07
F7
DE
25
EB
07
04
D2
F2
0C
F3
0B
E6
F3
E0
ED
C9
F4
0A
08
ED
0F
08
03
3D
0A
F2
39
D1
FA
23
DC
1E
0B
21
F1
FA
08
0E
3E
2C
1F
18
0B
11
0B
36
F9
1D
24
11
0B
1F
E5
C0
AF
F7
05
F6
F1
FA
F7
ED
D6
D2
04
FE
00
E0
3E
DA
19
DF
FD
09
0C
B3
F6
ED
C3
FD
E9
11
C4
EA
2E
3D
08
C8
F4
FD
FE
0E
4E
10
E6
00
DB
D6
EF
E9
1D
BE
02
3A
E6
F0
10
0F
EC
25
D5
E5
F4
19
03
F6
21
D1
02
C2
FD
27
D0
FB
FE
18
F3
FC
EB
FD
E3
02
D7
E6
C9
F8
4A
21
25
DC
26
93
00
15
BD
30
C0
1E
E3
E7
E0
CF
FD
16
0A
EA
19
24
3A
D5
14
0D
24
DE
F2
11
15
DA
23
DE
CF
14
30
0A
3E
FC
38
41
11
D8
EF
F9
F4
FC
EA
FA
33
12
0D
00
EC
C4
ED
0E
3A
4B
68
42
03
14
04
D7
02
20
0C
E6
00
C7
FD
00
50
1E
27
FE
03
05
DF
2D
13
F6
D2
15
E6
D5
01
DB
16
E8
FB
E0
EA
F6
08
20
D3
EF
06
DF
11
F2
E8
CE
1A
FA
0B
E0
DF
02
F1
65
56
0E
F6
D4
07
A9
C5
1E
0A
1B
EC
FF
D7
33
11
10
CA
FE
E5
FA
BE
1E
5E
F5
B7
23
E6
1A
02
DE
C9
E0
BD
FB
0C
40
0A
EB
DF
00
DA
E7
EC
FA
DB
0D
F7
FE
2C
F3
DF
DE
11
02
F2
08
CF
0E
F7
10
E1
41
F8
47
F6
16
DA
F1
ED
E3
01
11
1E
07
F0
DE
18
E7
F9
CE
33
ED
F8
EB
FA
F3
FD
3A
12
44
35
B9
07
04
D4
FD
3C
FB
D0
07
E2
E9
02
F7
00
07
F2
F6
03
D1
3D
24
DF
20
09
F6
19
DC
F0
F2
DF
C3
2D
F5
DC
D1
0F
37
0A
C0
C1
18
F9
F9
D8
21
E0
EE
02
E1
0A
28
D7
25
01
32
56
07
C6
33
58
34
ED
1A
15
FE
16
23
FA
01
05
FE
14
19
28
F0
14
00
0C
31
19
04
04
C4
EA
E8
FA
13
F8
F8
29
FD
16
1C
13
C6
3A
E6
E8
24
02
E1
D9
F9
35
FA
E9
E5
2B
0F
EA
0A
F6
C3
2B
FB
76
F5
E7
03
F6
F0
D1
E8
FF
CE
E7
30
F7
2D
0A
04
19
ED
07
FF
0A
1F
FD
28
34
EE
E3
1F
DD
FE
32
E7
E7
FC
1A
DA
08
24
1C
1B
F6
FA
06
10
C2
DC
23
0A
0F
22
1F
54
FC
22
22
4A
2F
2D
E3
FA
0A
0A
FE
F4
E8
EA
1C
FA
DD
FD
2C
16
FE
04
04
09
16
D7
06
E6
0B
C1
F3
1C
07
FE
FC
14
E1
C5
A9
12
F2
1B
0C
E3
11
DD
DD
D3
25
BC
FD
DE
09
03
E6
FB
19
0B
01
FF
E5
B9
0E
CA
E1
D5
25
10
E4
18
1E
B4
F9
F0
13
DC
E1
BD
D9
11
E2
FC
F9
FF
F8
FF
F5
26
0B
08
09
FA
D4
14
D9
0C
01
F7
D9
44
F7
1F
16
FD
EA
D0
D4
00
ED
F5
0A
37
35
DF
02
30
06
29
DB
E2
17
AF
0F
03
FA
FB
D4
EB
CA
06
DF
01
31
05
F0
FA
3C
34
FA
CC
14
FF
FD
D9
E3
07
08
D8
20
24
96
D9
22
EF
F7
0B
3E
D8
FC
35
F8
E3
F5
D7
FC
17
E9
03
47
B7
E9
20
F7
D3
F5
03
24
F6
BF
D9
14
18
DB
EF
01
AF
B5
13
14
F0
EC
F3
AF
E1
15
26
CC
EA
09
3A
F3
03
00
1C
0A
E8
A9
BB
F3
D5
FD
F2
DE
28
BB
FD
FF
02
10
F5
F3
E8
D1
B3
2E
E6
F8
EF
CC
F5
F1
E9
E0
E4
EC
DA
E8
FC
D0
DB
DF
01
28
2A
07
CD
00
C1
DE
4F
11
06
0F
FD
F6
10
F5
03
FB
2B
FE
0F
00
F4
16
29
EC
DB
FA
FD
EE
06
06
08
17
1B
11
02
E6
0D
1E
ED
E1
2F
F8
F6
DA
0B
D6
08
D2
C3
F2
DA
EF
CD
04
07
11
05
07
F7
34
16
CC
E8
F1
2B
E1
E1
E3
E8
14
D6
FF
B1
04
F7
CE
D6
E6
E3
EF
12
FB
F5
10
1B
EC
0C
E8
DE
13
36
ED
3E
F9
12
DC
EB
E6
17
F0
2A
01
CA
D2
30
F4
E0
FE
EE
F7
DF
FC
25
F7
0B
F1
0F
07
34
D6
E1
B7
DF
E4
DB
D0
F6
EC
BE
FC
F5
03
D5
05
07
FF
E0
0B
20
D2
1C
2D
02
D8
FC
1C
0F
FF
00
DD
DC
2E
ED
B3
05
0A
12
F5
D4
CC
D1
DF
08
BD
FB
31
18
CD
E2
FE
FE
07
E7
11
F9
EA
BF
1A
2B
E8
DD
33
03
E2
1D
ED
F7
24
28
FA
DA
E9
06
FA
F1
DC
EB
EE
F9
9E
4B
C4
FA
E4
EC
0E
27
19
2E
E7
BB
CD
EE
0D
D5
00
18
46
D9
F8
3A
0B
3D
1B
12
1C
0D
13
F8
09
CB
C2
FF
30
00
C6
0D
30
AB
0C
E8
ED
E1
F3
E0
FA
14
28
F3
42
F3
F8
FA
F5
22
F1
E3
E5
E6
EF
DE
EA
08
24
05
30
22
FD
02
3E
33
0C
EF
08
FC
DD
DF
E9
EE
06
28
DC
EA
1C
CA
CB
33
D1
EE
E3
20
1B
1B
DC
24
C0
0B
F0
3A
EE
FF
D5
22
EF
11
00
F3
CF
B0
19
0D
D8
0F
25
EE
0B
FD
1A
EB
0D
17
00
E7
FC
D8
02
BA
11
F3
EC
03
B9
17
0B
46
D0
FD
D8
19
FE
0F
DB
22
28
FE
E3
A3
22
E7
DA
18
1D
0E
EA
32
00
32
F9
1A
DC
0E
32
FC
E7
2D
17
FD
C0
EB
0F
D5
40
CB
E3
07
1B
16
EE
EF
F0
01
C6
ED
16
0A
0F
17
DB
58
DD
19
FF
D5
10
32
FF
FE
E8
EC
0F
27
FC
09
1D
DA
05
38
F9
F0
32
14
1A
26
49
0F
12
0F
30
E7
1E
CC
E5
20
E7
E9
F8
ED
DC
08
FF
E5
C7
FF
00
0A
DD
18
29
0F
E9
F4
06
F8
F5
CE
12
FC
0A
05
06
FB
10
21
1F
ED
E8
0B
2D
E4
20
16
E0
EB
40
10
08
F7
1D
D8
E9
1B
F4
D2
E4
F9
18
1B
E6
F1
29
F6
DA
35
29
14
17
04
2D
D5
D2
3B
0F
D7
F4
EF
25
F1
0D
F4
DF
02
2C
ED
E2
C9
F9
09
18
0A
08
11
F6
3E
04
ED
F2
25
1A
1C
04
1D
14
01
0E
E8
47
0E
E8
0C
27
24
17
E5
E7
1F
06
08
28
DC
2C
F6
22
FC
E0
10
02
FA
F5
00
43
E0
06
2C
23
18
29
E1
45
ED
08
11
D8
02
2A
08
0F
BA
F4
0D
18
AB
06
0E
2A
28
04
1D
15
27
EE
24
3E
0F
22
E2
05
09
E2
23
21
1D
25
05
E8
11
F7
16
12
EC
1F
1A
0E
17
3D
21
EE
DC
D1
E7
0B
07
D0
2C
2A
10
1C
38
14
EE
E8
1E
DB
C8
05
31
12
23
E3
23
0B
14
06
10
72
FE
F9
DE
F2
05
FD
E0
1D
08
07
2C
0C
D6
CA
F9
D0
EC
1C
3C
13
E6
13
F8
0C
03
21
E5
E6
03
E6
05
DE
08
EE
E7
D4
EE
3D
DF
E4
1A
EA
23
04
CD
B1
31
FA
E1
F8
FF
ED
AA
33
E6
B5
34
F0
18
D4
DF
E6
2A
50
54
FE
DE
C3
FF
FA
F3
D2
29
C2
1B
24
10
7D
03
D3
D3
EA
09
12
0C
F9
EF
1D
D3
DA
31
31
07
07
2E
B7
1C
D2
F2
0A
25
2B
FD
B4
D8
E1
03
F7
EA
BD
DD
FC
03
DD
E9
F4
EE
EC
BD
3D
F3
12
FC
1D
D3
06
00
E5
14
07
14
EB
D6
FE
1A
1E
EE
DF
E1
F3
F8
AF
08
13
CB
DD
DF
F9
0B
F3
F8
FE
F4
EF
E9
BB
F6
F9
10
1C
0C
FA
EF
FE
EF
01
12
07
F3
FE
D2
F5
D2
DC
42
1B
1B
01
BD
47
09
F0
1A
DB
F2
EB
05
45
FF
0C
1E
E1
F2
DD
08
CC
D6
F1
0C
0F
E5
D4
D2
BB
DC
41
E6
E8
40
27
10
05
3B
04
1A
1A
E1
E5
F8
F2
FC
CB
12
26
FA
E9
E8
B8
3E
1A
BD
D8
C8
DB
26
EE
1B
EE
E3
08
E1
0C
F2
EB
EC
EB
1B
12
C4
D1
0B
1F
EF
1B
EF
CD
01
09
E6
2A
FA
F8
5F
14
FB
03
E1
0D
FA
CA
11
FB
DA
E7
DA
0C
E3
00
FC
28
15
CE
E1
0D
33
1F
19
24
F6
08
F1
F4
02
EA
16
3B
F4
05
04
E3
23
31
22
04
0A
FB
53
42
4E
10
E2
EA
BE
33
17
2D
0D
F2
F6
00
12
FF
D9
FA
FA
10
37
E9
01
F2
E9
02
0D
DE
E7
EB
07
06
FD
11
3B
D5
C8
21
03
0E
0A
0D
F5
D7
ED
EF
D5
E1
EF
0E
DC
19
0D
B1
F6
FF
1E
CC
4B
01
16
1C
CA
0A
FE
1E
FD
DF
E2
D5
EB
F6
0E
E9
37
F0
11
D4
FC
F8
16
D7
16
2D
29
51
E9
34
FD
D5
ED
0E
24
56
D9
18
3A
24
31
F8
F6
FC
DE
30
EB
F3
DC
DC
C2
E3
06
14
1C
0C
38
00
29
DD
16
FD
15
05
47
FB
FF
E1
24
12
14
18
15
C8
CC
E9
29
DF
D6
2F
D6
00
52
F9
E5
A1
E1
CC
9E
26
2E
0D
F4
1F
25
FE
FA
08
12
43
04
23
0A
F7
F4
28
FA
FF
02
03
27
EA
F5
FC
BE
4E
04
26
09
FA
FC
2B
A4
DB
02
E2
07
1A
02
0E
19
D9
08
E7
2E
E3
44
31
12
DD
1F
C9
EA
13
24
D1
FD
EF
2B
E6
11
E5
EF
CD
FB
12
0A
E0
E2
B3
E0
E8
F2
FB
01
FD
E6
FB
D8
EF
D0
18
19
E2
ED
03
D4
04
0A
17
F0
1D
1C
E4
03
D2
AA
2E
03
16
C6
EC
F8
B3
EB
42
F2
0A
24
12
E7
DD
2F
DB
F3
FA
16
1C
D7
F7
13
1A
D6
0E
F1
FD
00
EE
D5
FC
DD
E8
11
0D
DC
00
FE
02
29
F9
11
23
00
17
FA
37
3C
17
EF
19
F6
F6
F8
E4
02
E7
EC
08
FC
17
B2
FB
FC
E3
09
FB
E1
F0
CC
08
EF
B9
D4
E9
3A
FD
0F
15
E3
F9
E9
0C
18
37
F3
CE
E6
F0
EA
31
D8
F2
1C
10
E4
FE
F0
15
FE
F3
DC
B8
25
07
D1
11
FC
EF
F5
29
C4
03
FF
2C
14
EE
DA
16
04
12
F5
2C
E9
54
E9
05
08
0A
08
C2
0F
0B
0B
2B
0F
1F
FD
14
0E
28
04
09
D2
05
32
DE
F5
39
09
F8
F7
BA
EF
17
13
19
21
14
02
31
07
D7
22
2F
E9
0E
27
0C
EB
EA
DA
25
CA
DF
26
F9
FA
38
FB
33
EB
E3
F0
3B
1B
16
0F
A6
DC
FE
EE
E4
64
F4
00
F6
22
1C
18
1D
33
EB
05
F6
1D
18
DD
36
F6
D8
01
CE
F9
FD
FF
19
EF
0D
18
22
46
F2
08
FE
09
09
1A
05
2B
0E
12
0E
03
EF
F7
EE
0F
2F
06
E6
EA
02
DB
B4
FB
DD
1D
FF
19
E6
FC
E5
3D
0F
EA
06
D9
1E
03
0A
32
05
C6
28
FE
FA
59
BC
F9
09
FD
47
11
E5
EF
06
0C
F9
30
D9
1F
0E
14
04
25
B2
BF
D4
FE
E2
0E
28
E9
15
0B
FE
60
01
F9
00
19
FC
18
14
10
FF
FF
1D
EF
E2
DA
DA
E5
13
EE
23
CC
D3
EF
14
E3
FF
D7
C2
28
20
CF
F3
E5
03
2C
21
1B
1D
F0
E7
14
ED
F7
38
26
D0
ED
17
9D
ED
0B
D0
F9
19
1B
E7
1F
05
0F
D6
F5
1C
FC
BE
E5
E7
24
DC
04
06
FB
F9
FB
FE
08
13
FF
E0
29
06
01
DA
F5
C2
F9
D4
F3
06
19
E5
C1
D5
F5
13
04
27
BE
2F
2D
E4
F1
1E
0D
23
0D
E3
10
24
E9
C4
1E
13
0B
C9
28
F1
10
19
1F
18
1F
BD
F8
D4
D4
EC
47
21
30
D9
D0
03
B4
07
08
F6
21
E6
DB
1E
14
C1
1B
F9
1D
ED
E2
04
E4
4F
37
19
F2
24
F8
FC
D0
17
0D
14
FA
DD
D7
E1
D2
F9
FC
19
F6
2F
E5
DB
0E
E1
0C
33
07
CC
0F
F2
08
36
27
20
E8
E6
10
F6
DE
FC
0B
B3
05
F7
DF
FF
57
AC
19
13
51
D9
C5
32
F9
EF
07
CC
E0
C4
FA
D0
DA
D4
E9
F8
F4
F2
D9
F1
D8
07
E3
03
F8
34
1A
E3
2B
15
0F
D5
15
E9
FF
E3
2C
02
32
F2
3F
D7
E1
D3
F5
F0
FE
F9
F1
E9
0C
10
D5
C3
F8
25
DA
00
FA
49
CF
0B
04
E0
04
D3
56
0F
DE
E5
07
CE
ED
CF
13
06
10
F1
D7
F2
F4
B2
CF
0A
29
03
C1
27
04
F8
02
E3
12
1C
04
0F
13
F9
1E
09
D5
1A
41
DF
1D
0D
05
E9
E8
ED
F6
D0
AD
DE
E8
FE
F2
CB
2B
DE
F1
FF
0A
E3
0B
E5
19
EE
D5
F6
10
0B
BD
C2
EB
FB
00
12
D1
03
CF
DC
E2
DA
E8
FD
D8
39
E4
F5
10
E3
EA
EF
BC
24
F6
02
D7
EF
FB
FB
E4
E7
FF
E9
BD
FD
15
19
EA
DE
EE
F2
10
08
09
F7
BD
C7
FC
F9
03
F1
F8
EF
11
FF
05
09
F3
ED
EC
BF
F8
D4
23
F5
12
3E
02
E5
EE
4F
F3
DC
C1
0B
02
FA
09
2A
FC
E5
10
F9
E2
2C
05
2B
EE
29
0B
14
FC
12
31
25
00
04
03
F4
06
D6
DE
0D
FB
E8
D8
15
BC
DB
35
F8
F3
F2
F8
E2
45
23
02
1B
FB
E6
18
07
20
0A
FE
1B
00
10
E2
21
FC
03
EF
11
E6
C9
F4
12
EF
D8
F8
FE
D9
F7
F2
EF
02
09
2C
E7
E9
23
0C
E1
E1
D1
2E
0F
22
07
11
DC
DE
C3
15
28
F4
38
1E
08
0A
01
08
26
0C
28
34
38
DB
07
29
F4
D9
0B
F4
09
DF
EE
0D
0D
15
1B
F8
0E
F7
DF
00
F8
EE
F3
D4
EC
20
F1
23
05
35
33
1B
1D
05
F0
EE
18
24
FB
05
F8
E7
2E
F0
F8
DB
E7
22
FA
25
DA
FD
C5
E5
1E
FB
15
2B
06
CF
EA
15
2A
02
1D
E1
08
DC
21
20
EF
FC
08
31
D5
59
FD
18
DE
09
F0
FD
1F
15
F1
0D
CC
F4
08
11
D9
F4
07
45
CC
F9
D9
E5
FD
A9
01
E3
F6
DC
BD
0A
F0
F6
E7
43
F8
08
F3
14
D8
D5
F0
20
C6
DC
DB
0B
DA
DC
F3
0E
ED
F2
EF
F6
DD
FE
D0
EF
04
D0
E5
0E
F4
23
F1
C5
09
1D
D1
E1
E8
ED
02
18
0A
1D
F6
0E
CC
EF
DA
FA
07
D4
21
EC
EC
15
F1
03
E6
0D
E9
0E
39
DC
38
F5
CE
E7
0B
0F
D3
1F
C3
F6
FC
F3
32
EF
04
1D
DA
03
01
D0
CA
F5
CD
F0
F0
DF
0A
16
22
03
0B
FC
27
09
DD
EA
FF
0E
27
28
CF
F4
F2
F0
17
D2
24
E3
F5
FC
32
BD
B6
13
09
26
2B
CF
12
04
1A
C7
F2
2B
F1
01
FF
EC
28
04
26
2E
0B
F0
F5
1B
04
DA
E8
C9
F1
00
F5
0F
DE
F5
42
00
EE
07
0D
17
E0
F3
33
29
DE
21
EE
D6
DA
58
15
19
13
E4
C9
EE
E5
0C
63
3D
04
F9
16
BA
C7
0B
E7
DE
F1
EE
D5
BD
FE
E9
13
0A
C6
E1
E8
0A
0F
0D
D8
32
29
FA
F9
EF
DF
08
E0
DC
FE
F2
16
E4
32
0D
0F
07
E1
07
4D
F2
38
EF
26
FB
DC
40
19
42
08
F0
37
02
1A
E5
12
2D
EA
EC
DB
FE
11
41
0F
EB
37
D7
F8
10
EB
14
00
F4
DF
FB
4F
0D
23
19
BB
00
DB
C5
D3
EB
E7
F7
33
BB
C7
F7
F6
EC
DC
D6
3F
12
13
11
15
04
12
2A
F8
0F
DD
D7
13
45
FE
22
1B
09
BC
E6
2F
F7
0E
0D
D8
10
4A
F1
01
17
02
E3
E0
14
EA
F2
2A
F3
FE
18
1D
02
0B
00
00
EB
38
E6
36
EA
E6
32
1E
2D
26
1D
E0
05
3A
D2
EA
0D
02
21
23
D6
FF
0E
03
F0
37
15
2A
DD
E9
E6
28
18
EB
22
28
F6
EB
24
E8
EB
32
0F
D4
27
06
00
D8
1C
00
35
32
03
18
19
08
1A
D3
2E
08
02
D0
0B
EC
CE
3B
D2
CA
F9
1B
E0
F7
3B
03
F4
0C
15
08
FB
EE
3E
05
EA
03
F7
FD
E8
38
DD
0F
1A
E1
32
E3
FA
F3
46
23
09
2B
ED
30
23
EA
21
BA
F7
FD
12
9D
11
FF
C1
D3
D0
1A
17
FD
EC
0F
CB
EC
F1
FA
BC
09
1A
D3
10
FB
FB
E1
35
0F
27
D7
3F
D7
D9
0B
0C
FA
C7
DF
23
F8
0E
15
E1
15
1C
34
F9
ED
1E
2E
0E
D9
05
CC
FF
0A
F4
00
C6
E9
0F
15
0E
E3
24
39
EE
12
43
F0
28
FA
F2
38
12
CA
DE
00
F8
EC
F1
16
2E
17
21
F9
F9
30
1A
35
B6
07
EA
21
04
29
05
09
DF
FC
EA
18
E3
16
06
12
0E
ED
2D
0A
FD
EB
F5
07
D4
E3
10
06
C5
FA
02
0E
E6
30
DB
03
40
22
14
1D
FA
23
1B
01
14
31
F3
2C
ED
27
2C
2C
24
19
16
F6
C5
27
6C
07
FC
B1
FB
18
F2
E2
12
F8
10
19
FB
02
2E
F6
C1
08
E1
EA
0E
FE
EC
7A
C6
19
DE
E9
03
F7
F9
E7
19
F9
FC
12
E1
E4
E4
CB
F1
31
EB
DB
0F
19
F1
21
A4
EB
10
07
F3
2D
13
14
EB
E7
1F
FD
0D
03
04
2A
0C
1A
03
DB
F0
DC
1B
1E
00
D9
1D
1E
1F
F5
E2
EC
F1
D6
08
07
F9
D2
03
F6
C8
06
0D
F2
F0
F8
1F
1E
04
00
FA
F3
E4
26
EF
FD
28
CC
C9
1F
39
FB
19
F4
12
29
27
09
4B
D4
2F
A5
14
03
24
C3
F0
04
5D
32
D5
35
F8
FB
E1
1C
06
04
DB
EF
0C
18
F4
0C
DE
F5
E9
D1
36
FF
F5
27
14
DF
34
FA
EB
11
04
DC
FC
E1
D9
E3
E9
2E
D8
F6
E0
D8
F0
F6
F8
F2
25
14
02
00
14
E8
E6
28
F9
E5
DE
F8
1D
21
0D
47
07
E4
12
ED
FB
F3
18
06
27
24
3D
0C
F1
34
25
0C
E7
06
FA
34
43
23
C7
22
44
08
CF
13
FE
20
E6
FF
DD
13
F9
1C
D9
F6
05
20
01
FB
FC
F0
EF
22
EF
00
F4
13
EF
E1
17
04
16
3F
06
ED
18
E9
BE
E9
F5
D0
F1
47
0F
F2
03
05
0B
FC
20
F6
ED
15
15
FD
0B
34
1A
22
10
EF
20
17
26
FE
2B
C3
EB
27
25
E6
FD
E4
07
09
F8
15
2A
33
08
F3
E3
27
08
D2
22
DD
07
07
10
12
6D
1E
C9
30
E3
09
22
C6
D5
E3
E5
E3
CB
00
EE
F0
FD
F8
3E
2F
12
08
E9
3C
F9
0A
08
2A
CF
DD
EB
1F
F0
24
F9
0B
0D
E2
C4
C5
E3
0F
3F
F5
E2
E1
0E
C8
0F
E2
33
F8
D6
EC
00
0B
F6
C5
F8
0C
20
F6
16
02
FA
1D
EF
08
D3
F4
F1
1C
FF
C6
21
10
E6
CA
FC
CB
F6
11
0A
09
13
3D
13
33
05
CF
E3
FF
26
16
CA
D4
E4
E3
13
F0
CD
E6
EC
0D
D6
1D
01
C2
D9
FC
EB
08
0B
C1
AB
FF
07
A1
16
F7
E0
EB
D3
F0
F2
E3
37
D8
F8
10
24
C9
FE
20
12
E5
3E
0C
BF
FF
F9
CB
DD
07
EF
22
F1
FD
41
FD
B3
06
DF
01
00
06
23
00
1D
F2
20
CD
F0
2C
DA
F7
DA
CC
F1
29
02
CF
E7
E1
11
E4
1F
09
1B
38
F1
DE
3B
F5
0C
FB
EC
EA
DB
F1
DE
E0
02
1B
E7
03
0E
24
1F
A4
D0
D7
38
FF
0E
17
0F
18
E4
29
0D
2A
E5
F3
17
B8
D9
1A
0C
3D
44
03
1B
F6
F2
EA
C2
16
01
F7
0D
01
E4
F3
F7
13
12
D3
F0
F6
48
21
EF
0F
21
1C
0A
24
12
02
0B
09
CF
04
41
E9
FA
15
55
EF
20
CB
ED
07
DC
19
20
10
FB
DD
D4
15
0D
EA
E5
FC
DB
FF
E3
FE
5B
FA
F7
F5
F3
DC
F5
37
FB
FA
B9
18
E7
23
07
FE
19
14
C3
C1
ED
21
12
E4
F6
F0
FC
C5
0E
05
01
DE
F7
01
25
F7
39
0A
1C
EE
EE
EB
21
05
FE
48
07
F4
25
E1
D4
0C
0A
1A
F3
EB
EE
1E
10
31
F2
E7
EC
D9
E6
E6
11
F2
1B
EC
F1
D5
2B
0A
FD
FD
D4
06
04
00
0D
FE
DE
05
3E
FF
04
07
D5
32
F4
ED
E7
E9
23
24
F4
09
EE
54
CE
03
EF
13
0D
5E
09
1E
DA
F2
E9
F6
23
1F
09
36
FE
E8
DB
CC
1B
12
FE
12
DE
12
13
F3
E6
ED
1E
C0
F6
0A
FC
00
2E
E3
F4
FD
E1
2F
BC
08
0E
01
2B
0D
F2
FD
01
23
0B
29
1B
F6
FB
E8
C8
D0
25
38
1B
29
20
14
04
F4
0A
F2
01
E2
EC
DF
F1
ED
F6
DD
2C
06
0E
CB
F0
EC
33
28
26
2C
E8
01
FD
EA
EF
22
1D
ED
20
FD
D3
28
EE
EB
32
54
13
E0
CE
DE
E7
1D
CD
EB
43
15
C0
2F
12
1D
EC
FB
31
FB
E6
F4
CF
08
F9
14
22
D1
FE
27
08
DC
D1
FF
0D
ED
30
FA
04
2A
3D
1B
E4
4B
23
23
CE
B3
FD
F0
13
EC
14
31
F8
08
C8
C9
37
2D
44
DB
08
2C
00
30
0A
02
21
FF
E2
F6
21
C0
F5
08
F8
EC
2D
C6
F8
F0
1C
3A
E4
46
1A
F7
D8
21
2A
13
0B
FA
1B
0A
FB
03
E8
CA
DE
0E
2C
0C
27
02
2A
09
F0
1F
C7
DB
1C
05
DA
2D
FA
FA
18
DF
10
D1
F3
C8
FF
6C
C7
1A
1B
17
EE
37
28
15
D5
0A
0A
FE
F8
F2
26
25
F0
06
A5
1C
CE
FE
1A
30
F3
01
36
1F
25
30
06
CB
0B
FF
E8
3F
EC
12
53
29
06
EE
0F
E6
EC
FC
17
FD
EB
28
08
0F
24
21
14
12
F7
E2
14
4A
E5
EB
FA
BB
F5
E0
04
12
01
E6
0A
C9
FF
34
F4
45
E6
4F
FF
2D
16
A3
2B
E0
F9
D7
F6
F7
09
06
21
24
2D
0F
F6
FA
B4
46
25
EF
15
E0
FC
0A
F7
D5
24
FD
F3
07
DD
DD
06
FC
0D
D5
3D
21
09
25
F6
10
D7
FE
06
DF
09
07
0B
12
0F
04
0B
FA
1A
D4
07
C3
C7
10
0E
23
FC
DD
E6
01
E9
1A
BC
0F
3F
E2
D6
FB
F4
23
0C
0B
F4
EE
06
E8
F0
17
FA
00
1E
23
F9
DC
37
F4
F1
1B
F0
D7
FF
02
E8
14
EE
37
FF
1F
4D
DD
01
F3
23
FB
0E
33
16
F3
1D
CF
DD
18
0C
02
F6
2A
0F
3E
00
4F
D8
05
10
19
5F
05
BE
32
03
35
DD
CD
F2
CE
1A
3C
1D
1D
14
2A
2C
10
07
C8
2C
D0
DD
0E
0E
15
10
ED
14
D9
D6
C1
F7
0E
F1
16
C9
0E
DB
ED
CE
3B
EC
16
05
BC
04
03
36
16
1D
30
09
F8
28
BD
1D
02
CA
FC
F4
04
D6
F1
15
04
FF
29
03
E7
1D
2B
06
32
0F
C8
CE
19
D3
07
06
1C
45
12
3B
FB
EA
06
C6
07
FE
F9
05
02
3D
12
04
E7
1C
D4
E5
05
0D
2A
3D
FC
05
D3
EE
10
0B
F8
E1
10
D1
02
E7
F2
04
10
F0
D7
07
FF
E5
E4
F4
4A
FE
2F
00
EF
C2
EF
BB
26
1F
E6
DE
32
1E
EC
37
F9
DF
07
21
1E
E5
FB
E2
0A
CD
FB
E5
E4
10
05
DF
00
D9
2A
EE
FE
E8
15
1B
12
FB
AF
10
F5
DC
00
07
EC
04
F4
03
D0
D7
12
03
44
0B
16
D9
26
ED
E0
F9
C8
FB
2D
CD
EB
C9
E6
E6
D7
08
00
32
F3
17
F9
15
C4
F3
F2
D9
05
06
E8
00
FE
10
01
DA
F8
F8
DB
1B
EA
1D
1F
0F
3A
F5
FB
01
D6
FF
0C
2D
11
1A
F0
17
EE
E9
0C
FE
CA
E5
FE
DD
F4
EB
BD
02
F0
D8
EB
DD
44
03
E0
23
C3
D8
EC
F7
FF
2A
E3
FF
02
E3
1B
1A
02
D6
FF
F0
EC
C9
E6
A4
F3
16
1D
00
FB
22
FF
FC
19
E3
00
C9
17
F2
F4
DF
D3
11
F8
ED
F8
DA
FB
22
01
FB
EE
F4
22
E0
FB
C3
1E
E1
EC
F0
18
EB
ED
C1
E1
BC
E1
D6
07
E0
2D
FC
C6
F6
D4
DC
06
13
E1
CA
F8
0C
EA
E4
E0
02
D0
F7
E8
F2
02
16
F6
FC
E9
CD
F8
E9
15
F1
0C
D0
E6
F7
E3
F7
13
0A
FE
02
EF
A5
17
E9
E7
D2
1D
D2
2F
F3
E7
F2
C9
04
DA
29
EC
05
3F
F2
0B
12
31
4D
F7
09
BF
DB
3A
F4
DD
C6
E4
A4
DC
C7
FF
1D
F6
E0
EB
19
01
0E
CF
2B
FD
2A
02
09
D9
FE
0C
FB
17
F3
FF
F6
27
15
E2
1A
04
17
1A
04
E1
E6
E6
22
FA
0F
DF
16
1D
29
12
E2
0A
D5
0E
E1
1D
F4
DF
E5
DC
E8
E9
05
0A
F9
2A
2C
1B
F2
1A
0B
F3
FA
10
02
EB
F7
F0
F2
E3
28
E9
1E
1E
2B
07
FA
AD
0A
67
29
23
F6
BA
3E
F2
F6
DC
22
FD
14
0B
24
D0
D2
14
ED
B8
4E
0F
0D
FF
20
44
2B
39
ED
5D
FA
21
ED
02
00
18
F3
E2
FD
E5
00
0D
EE
0A
CB
E0
06
27
F5
FB
E3
16
F1
F8
0A
DD
2D
05
30
0D
0A
43
CB
BC
D1
F9
FD
D2
EC
2F
1B
F6
FD
30
33
E7
0F
FA
F3
E8
D9
EF
03
EC
B5
C9
D0
05
13
EC
0F
E4
2E
E8
19
12
0C
08
58
03
22
DB
FB
3D
26
D7
10
0A
F2
F8
E8
EC
0C
33
DD
FD
18
ED
22
FE
11
32
0D
06
FD
E7
2F
F8
1D
F9
1A
11
D7
0A
F9
F9
50
EE
24
FD
EF
2C
D9
12
03
F5
F5
F8
E7
0C
19
F8
01
0A
EF
EF
04
24
1D
F2
1A
1C
04
1C
0B
36
01
E4
2B
37
0A
18
FC
F3
01
09
21
F9
FF
D9
14
E4
DA
12
24
E6
E2
E5
EC
0D
01
05
F7
D0
F8
0D
05
E6
11
28
30
05
06
45
39
3B
3A
04
0B
E9
29
23
07
29
2F
0C
01
3F
F3
4F
1F
02
00
08
19
FB
F1
1C
14
0E
05
2C
09
41
1F
E0
10
01
0D
F1
EB
3B
E4
3D
1B
37
24
29
04
F9
19
19
32
E5
02
F7
0D
FF
DB
F4
1F
1E
F8
05
E7
34
0B
07
13
DF
CE
18
27
FF
DA
18
14
EC
28
08
0D
E2
FA
DF
F0
3F
C1
0D
E9
FF
2A
F8
EC
D7
F6
F3
0F
F4
12
30
16
FE
0A
DC
08
F5
0C
0A
0A
24
F8
E5
32
0D
09
2C
09
BC
B4
15
09
4B
13
D0
35
28
25
F5
FE
FC
05
15
1D
C7
FE
08
13
3D
34
04
22
32
E0
EF
23
32
1B
CC
E5
28
E6
F2
0C
CC
0E
27
15
F6
12
12
00
DD
0A
DF
D4
DA
1C
35
EC
12
DB
FA
16
05
FA
E2
FE
F8
F7
11
E5
2F
25
23
1F
03
04
1D
0F
02
16
F2
19
F7
0C
E6
2B
12
F7
27
0D
BC
FF
02
20
DB
21
E4
4C
EA
FD
F7
20
10
23
F2
24
E4
4F
D9
0A
F8
F9
E4
9E
D9
D4
F1
EE
16
F2
CD
06
CC
B4
D7
21
F5
12
04
C7
F2
C7
F1
0C
F8
0F
E6
E8
2A
02
1A
2B
1D
14
0B
34
F1
BD
F0
D7
19
38
0A
EE
01
30
CD
F8
CD
07
21
F9
CD
FB
29
ED
CE
1E
0D
0C
26
11
D4
17
F1
E9
F6
1B
07
07
21
0E
02
23
F2
24
29
C5
1C
13
EA
19
0D
FB
F4
F9
BD
05
ED
F2
FC
F1
F9
F5
00
3B
01
36
0E
1C
E7
10
FC
1E
31
E1
EE
3E
D6
CD
E3
2D
3E
20
FD
F3
0E
ED
1A
E3
E9
25
F7
0E
01
F4
28
F3
2A
E9
26
08
DC
EA
18
B8
32
13
DC
42
22
D1
E1
10
09
FA
11
0B
01
BA
06
0B
18
D2
0B
FF
F8
D2
09
3D
DB
03
D4
25
02
F5
D6
0A
17
1B
21
EF
0C
30
F6
FF
FC
1D
9C
30
FF
E9
16
09
07
0F
12
12
03
FA
1B
EC
E0
15
20
F9
16
ED
37
FF
2F
E9
01
03
DB
F9
1A
27
F7
F2
E3
E8
EF
DF
34
21
03
FE
20
54
B6
E2
FA
32
FE
ED
03
01
33
FE
0E
12
EF
01
0F
13
05
BB
05
3E
FF
15
D7
DD
01
F8
1A
1F
13
0C
DA
FA
16
0E
39
E2
DB
EF
0F
D2
D0
21
E3
11
FD
2D
F7
F4
ED
E3
2D
02
F0
14
56
1E
14
2A
DA
11
2B
36
1B
EE
22
02
D8
30
FA
08
A6
0A
D6
E0
18
F0
C3
EE
0F
46
FE
E8
1A
E1
B3
DB
21
BA
F7
F2
F3
E0
2F
57
E4
31
F8
12
ED
0C
DF
EB
FA
F5
4C
D3
F6
CC
FA
F1
EA
03
FB
0F
F7
1D
3D
E2
C9
4D
FE
21
04
21
0B
0D
E2
97
E6
20
F6
09
39
EA
DB
EB
4C
DA
1D
18
12
31
FC
D7
06
0B
01
C7
06
07
1E
0B
06
DC
EB
40
1A
09
FB
E6
EF
22
11
06
E1
EA
0A
19
F5
21
FC
FD
31
02
ED
E8
F4
E1
0B
EE
B1
F8
14
23
EC
E8
03
00
E8
F0
FB
2D
F7
29
03
25
CF
07
1A
FF
27
E4
0A
1F
14
25
1F
11
FB
E0
F4
DF
EC
F6
54
31
FC
F4
D0
29
12
2E
2D
22
02
E8
02
DE
E7
C9
F1
25
F7
12
0E
FE
FB
E9
EB
2C
E8
D9
07
FD
D9
C4
03
F6
DC
EE
E0
EB
17
E5
16
47
03
E8
E5
E0
DB
1D
3A
FA
FF
16
F8
EA
27
2D
0B
CF
EB
C7
14
0B
F9
2D
13
FE
17
03
FE
2B
FF
DB
00
0E
F4
08
D8
F1
FE
F8
05
D2
D1
3B
28
F6
05
E9
D3
05
EA
ED
22
15
0F
15
1F
FB
14
26
45
D5
3A
04
DA
F5
E9
11
11
FD
EF
09
FB
DC
F9
0F
1C
F6
15
EA
CE
12
EF
10
32
0D
FC
05
13
18
21
F2
06
FE
00
0B
EF
0B
E3
18
1E
32
27
0F
CB
D5
04
23
07
12
3B
00
D6
05
C9
DF
CB
31
FB
11
EB
F3
0B
F0
F0
FE
07
E6
C6
DB
0E
F3
FF
F4
0D
13
1B
11
2E
E2
42
ED
14
D4
E9
DA
F7
EE
F7
E4
37
0B
D6
4F
1F
21
01
CE
F9
BC
FC
27
FF
4E
FA
49
07
01
0A
07
F6
21
23
07
02
03
23
0A
0D
09
D5
04
0B
12
F8
F6
FF
12
16
F9
F2
CC
06
13
28
E2
F5
1E
1D
07
02
D8
DF
1A
1F
F0
FA
1E
F3
16
DB
FB
06
32
FD
16
0C
E0
FC
26
F6
2C
1C
0C
03
21
F6
07
29
F2
14
F0
12
1F
E3
E0
F4
E7
ED
2D
0B
E4
09
49
24
FB
CC
DE
F6
FF
BF
D3
0A
0B
F2
18
25
D2
19
13
E1
0B
E0
FE
2B
41
20
24
22
45
2E
F5
2D
04
01
ED
F5
DB
25
F0
E0
0D
33
1F
E9
1F
33
05
3A
00
1B
25
E8
D8
E2
11
F1
34
00
05
FD
58
30
29
C8
12
EB
1E
08
0A
FD
2C
EE
F2
0B
DE
DA
F1
D1
04
2F
2C
D8
BA
E1
13
01
E0
CC
ED
C7
0F
37
E8
E5
9D
DA
03
05
E1
12
20
3B
05
27
32
F3
08
04
1B
F0
03
1A
31
EC
E7
D9
17
15
40
DD
38
14
4D
09
09
EF
0F
22
46
1C
EF
D3
48
2E
12
FF
E9
27
C3
DF
0D
E3
F3
FC
0A
1C
1C
03
9B
10
F7
03
EB
E4
35
FF
F6
E7
DC
EF
14
17
D2
D9
E2
14
D6
1F
F4
2B
3F
53
11
F1
18
45
0C
04
1C
2F
FD
19
1A
1D
12
28
0D
C4
0F
F4
E3
EB
01
D7
02
C0
DF
FF
35
FD
EE
D7
DF
ED
3F
33
39
F3
E7
00
E8
54
2D
11
F9
FE
D7
D5
1C
01
F8
FA
F5
12
D5
17
F3
D6
D7
21
E6
C6
DA
D4
ED
23
14
03
E7
FE
DE
1E
1E
F3
16
31
34
14
F8
17
11
FF
31
2E
FB
09
E9
DE
E0
F4
F4
EE
1A
DE
D4
E0
10
12
F2
01
52
11
FF
05
FE
F2
C4
00
2C
D9
0B
0C
13
02
F0
FC
3F
3F
17
1A
11
FD
2E
36
F8
1C
1C
51
D8
23
E8
27
11
E5
D8
FE
FF
09
F5
C8
FC
11
D0
10
15
BE
EE
C6
15
11
34
FD
0C
29
F4
DF
15
E6
D6
09
DB
E1
D8
DE
14
FF
FB
E4
DA
DB
19
F5
0C
FD
B8
E6
DC
DC
FD
09
F9
CD
0C
CC
D0
E6
14
EC
08
0C
20
EB
05
DF
A6
08
EC
10
C9
00
24
15
FE
FF
62
00
D2
21
EF
F7
26
21
F9
22
F0
E4
D7
F8
2A
0A
F1
FF
07
E9
3B
29
DD
D3
22
3C
22
18
19
EF
1C
D5
03
01
25
F2
BF
1B
11
04
16
1F
DE
E1
DE
1E
E5
EA
D7
08
EE
F2
CE
EC
0B
F7
CF
19
FA
11
42
F7
E4
ED
F0
FF
0B
EC
1D
F8
1F
04
1D
13
14
DF
16
08
EC
AB
1C
2B
25
16
22
FE
D9
03
EF
CF
23
DA
D2
D8
1B
02
24
13
08
ED
46
FC
2A
D2
1C
07
C6
05
E7
12
EA
E9
0B
0C
E1
FC
15
22
09
0F
11
DA
DD
20
E0
3C
21
EF
F2
1F
3B
02
0B
F9
35
0F
E9
38
32
F6
04
37
02
40
FC
20
1A
F9
23
1F
19
F5
FB
1D
EE
01
2B
FD
FE
FD
16
EE
2D
D0
E1
16
03
E3
05
32
0D
08
E7
DF
30
E5
11
4E
24
F5
D6
3A
3A
02
D6
17
36
13
15
F8
FE
1D
09
04
ED
F2
F3
1B
D0
EF
19
12
12
0F
06
CD
E4
4E
EB
27
FA
15
FF
F9
2C
1E
E1
12
FF
06
1E
FF
EA
EE
00
02
D9
02
F8
23
24
01
26
1B
DF
FE
E7
2C
E5
EB
20
E5
06
FB
D4
34
36
E0
09
3A
F9
BF
12
CA
F4
D9
F9
10
28
1D
EE
28
12
07
0D
0E
06
11
EB
03
20
F4
FE
4C
26
14
B2
E9
00
08
F9
09
02
20
B6
0B
1A
47
04
09
F2
28
AD
DE
06
0D
BF
BD
37
FB
FF
07
23
32
CD
03
21
21
17
F2
E2
2F
27
0E
E9
18
3F
0F
F5
F6
1B
F6
09
D0
DA
23
03
DE
11
24
2A
35
F1
F6
25
09
0C
06
F7
FE
00
F4
EB
15
F3
54
D9
21
00
C9
33
F7
06
E5
D9
E0
F4
F7
00
2A
1C
F2
F6
0E
2D
01
0F
EF
D7
04
15
15
FE
32
F0
D1
0D
0E
CE
0B
19
BF
11
02
D6
31
21
DE
13
F2
D6
31
06
EB
51
3D
17
D9
CE
FC
0B
3C
0D
09
FA
27
E3
11
DC
51
0D
DF
14
CD
0F
F8
21
CA
10
D6
2D
27
00
D5
02
2E
05
D9
0F
22
1F
CA
FC
F3
55
11
DC
01
DD
ED
1B
DD
1C
22
C1
35
C7
01
33
0B
E7
22
67
07
22
1D
12
27
0D
33
0A
2F
1F
E8
F8
C2
08
EA
D7
EB
05
0D
05
27
17
23
36
E9
EC
06
0B
CD
21
15
3C
ED
FA
DB
FD
FB
38
D3
20
0D
21
C7
D9
0C
C3
13
FF
F8
17
FB
1B
13
0F
0B
08
E9
FE
E8
ED
2B
B4
CE
D1
EC
FF
E1
17
E2
E6
1F
1C
D4
BD
F4
E4
47
EA
EC
F2
15
34
11
FF
DA
14
03
C2
07
32
EE
EF
D9
C2
FA
E8
EF
2C
F0
12
E8
EC
44
22
2F
34
0F
1E
F9
F5
DD
ED
EA
D9
8D
DE
F0
0B
14
17
F0
E3
D1
C8
FE
02
FC
03
FC
1D
15
FC
FF
22
01
FF
0C
E3
15
F4
E1
D9
04
11
11
DF
DC
EA
01
CC
3F
EC
DF
DA
07
09
CD
08
EB
EF
E4
AF
FF
D6
F1
FD
16
CC
02
CF
0A
13
D6
0E
EA
FA
F1
F0
28
06
FA
2D
42
0B
C3
04
E6
06
00
EC
C7
EE
43
D3
F0
0F
20
F5
F4
C7
E5
F2
BA
D6
E3
F3
13
EF
DF
14
2D
EE
CA
1F
F1
FE
32
EB
D8
0A
13
27
14
11
CF
F4
29
18
2F
18
14
1A
F3
03
FC
BA
B6
0D
F3
FE
0F
EA
FF
33
E7
29
EF
12
0D
33
14
03
F7
F6
07
08
16
05
21
FC
2A
CB
1E
18
E0
CA
11
FF
2D
0F
53
05
F1
41
13
F4
FA
EA
0A
17
F5
26
D7
04
1C
1F
12
E8
EF
E3
EE
34
E6
3E
42
00
22
48
E5
18
EF
F4
C4
D6
35
03
E0
1E
EA
EC
0D
44
19
2A
0E
23
15
08
71
EF
25
F4
09
C5
DB
F2
31
FD
12
1F
11
DB
00
05
FF
ED
D9
15
0C
2F
F1
DD
29
DE
D2
07
F2
DF
17
04
F8
1C
E4
30
24
F2
08
31
FF
F2
11
F0
CD
1B
FB
F7
F3
F5
53
F0
4E
13
37
08
38
04
0C
D1
F8
E4
E7
3F
24
00
03
13
38
4B
FD
1A
07
0E
1D
0C
F6
FC
FA
D1
FA
F6
DA
E5
D2
F1
2D
18
DD
D1
08
0A
07
19
FE
29
06
DA
CD
10
37
2B
F8
F9
F5
0D
28
D4
00
F1
02
D8
04
ED
FE
26
E6
E5
F9
4C
E7
F1
F9
ED
F6
F0
19
27
23
27
F9
19
0B
F2
07
E9
D5
F2
F7
CF
CA
AF
E2
C5
C1
9A
E4
E0
08
06
F6
E2
F4
18
E0
EA
CF
10
F3
1A
14
B7
B1
32
E4
0E
07
F1
BF
EF
FD
0F
FF
F5
E9
F2
DC
F4
E0
1B
FC
21
F0
03
27
CA
20
F4
0F
25
39
F9
FB
11
24
09
F1
21
2F
FB
45
ED
DE
12
06
10
24
F7
E7
0C
16
2B
E2
36
FA
F7
E8
4F
07
19
0D
2C
59
CA
A7
EB
11
06
01
1A
B8
B5
B3
0B
2B
0C
1C
29
D1
F2
17
D4
32
17
DE
E2
11
F6
FC
EC
04
38
23
F7
F3
27
D9
F7
EE
AA
C8
FF
F5
51
45
F7
15
CD
CA
EC
EE
19
FC
CE
13
27
E1
E6
20
FE
11
1B
ED
E0
B7
04
38
FD
CC
0B
E2
D8
E8
FF
FF
B8
08
F6
09
08
D1
27
FA
D7
D8
53
34
2F
AA
18
F1
12
21
F9
F8
00
0A
DD
CA
01
E1
E5
FC
F0
1F
EB
29
E9
E0
D8
08
F7
1A
DF
F6
03
E7
BD
15
1E
0B
F0
05
CD
FC
E6
04
05
E6
E8
EA
03
1B
CE
30
D7
01
F7
0E
D1
E8
CE
DB
EC
18
FD
F4
12
30
F7
19
FA
12
13
E0
D4
EB
FB
24
F7
09
1E
07
D3
20
0B
2F
E3
02
DB
17
38
F4
0C
EE
FE
CA
0E
0D
C1
D0
E5
A8
D7
20
15
01
22
D1
38
F5
F9
F8
04
1A
0D
3B
E7
15
EE
DD
24
29
02
2A
E2
E1
05
F8
0F
F1
FA
10
E2
D9
00
08
C2
03
F5
E1
17
E9
D4
E6
12
0F
0C
EB
EE
CD
F0
14
11
E0
DA
02
F9
48
F8
EB
CF
F6
01
FF
F2
07
28
BD
FA
ED
E9
F2
E2
11
28
EE
E6
03
EC
19
33
DB
01
12
0D
B9
CF
01
E6
0F
F6
28
EF
F3
F0
CF
E7
37
16
D8
01
F5
0C
0D
1B
0A
F0
09
B1
22
FB
82
2D
16
02
17
31
1A
ED
E8
03
13
07
C5
C2
3B
FC
EA
47
16
36
EF
D3
D5
F4
0F
F1
E5
F0
1E
DE
33
21
C2
1E
F2
C6
DB
37
EB
F8
15
FE
E7
18
DF
00
F0
31
12
C8
14
F5
EA
07
E6
FA
DA
12
4E
FE
F0
F2
E8
FA
21
D7
DC
02
D6
B6
EA
00
FF
F2
1D
D1
1A
FA
E8
F6
F9
F3
0B
08
06
F7
1D
F2
10
11
12
E9
F8
27
03
DC
3F
14
FC
1F
53
2D
2C
F2
F1
0B
00
D6
14
F0
F4
EB
0C
FB
1A
0D
1D
38
36
28
FC
10
E9
06
D1
F5
01
FC
13
08
04
FE
2F
41
05
F1
00
0D
2F
13
C4
08
F3
0E
C1
D4
F1
E4
0D
1C
24
10
E7
E2
09
06
F4
E7
06
E8
E3
D5
E9
FE
0A
2B
25
18
17
11
EF
E0
0C
27
15
ED
10
D7
15
F2
DC
F8
D7
03
0C
DD
04
D1
1A
2A
35
D3
F7
EE
F8
20
FA
F1
F6
47
D7
33
2A
DC
17
DF
27
FE
ED
18
25
AD
C9
04
01
04
08
FC
12
C6
E8
04
E5
0F
1B
25
27
FE
EA
FE
16
D1
E9
09
22
3A
D2
EB
3A
F0
E5
FA
F7
DE
E6
0C
F2
D5
37
21
16
0C
03
19
19
40
DD
F4
0C
F3
CA
F7
FE
27
00
06
01
F5
26
E8
EB
0A
08
D5
27
FD
EC
19
0A
10
06
FF
FE
E4
E8
EE
FC
EF
28
FF
25
F1
0F
BC
DD
F9
02
10
D9
15
0B
1C
FF
03
F3
1A
12
3C
17
F0
E3
F3
12
03
C1
E8
41
E1
18
D9
45
C8
EC
F0
EC
C4
04
DB
DF
0C
2A
FF
F1
E2
FE
EC
F9
E9
F3
03
2C
24
13
F3
0E
01
DA
07
2A
1A
19
22
E1
06
0A
4B
D3
FF
ED
09
1C
05
BC
1F
EE
15
01
13
08
00
FF
DE
EA
32
DD
D9
F2
2C
09
D8
21
ED
CD
30
36
58
F1
F3
D0
B6
B8
EC
3E
2B
24
16
4C
1D
DB
B9
F6
D4
ED
F3
06
0D
CC
10
25
F0
FD
C2
D7
FE
00
E1
09
FC
13
F0
1A
3C
1B
E1
2C
F6
DE
F5
04
F6
1C
28
2F
55
40
03
0A
24
CB
1D
D6
0C
08
F4
E2
F9
FA
03
4F
08
10
C6
D8
1E
B7
01
2F
EC
01
B6
12
2C
12
BA
FA
EA
FA
03
27
15
D7
D3
0B
FF
31
09
FC
C8
E4
D2
E0
F7
17
FC
E7
25
F7
09
DF
09
F0
0E
4B
F7
E5
D7
A3
26
E3
2B
BB
22
E2
F3
19
22
10
35
08
0F
2A
0E
13
1D
13
1E
42
07
D0
CD
EA
17
FD
EC
19
1E
C0
F2
F7
B5
E4
CE
FA
E0
19
25
3D
E0
31
C2
0E
FF
F1
BA
FB
19
14
FE
0C
2C
34
EB
05
1B
EF
CF
0E
FD
38
12
12
1E
17
0A
0C
0D
F3
36
F2
1E
DF
09
0D
20
DA
F1
08
E2
F5
20
2C
DF
E4
CB
DB
DA
4B
D4
EC
1B
F3
DC
24
EF
39
38
E8
C2
1E
F8
1B
DB
06
F3
00
E8
1B
E6
07
FB
3B
ED
09
26
DC
00
FB
04
21
08
18
DA
32
D3
EC
0D
DF
F8
20
EC
F9
ED
1A
16
FE
E9
F5
1A
1D
07
F4
ED
ED
08
09
BA
F1
19
20
02
C0
05
E3
01
E5
10
0B
E8
02
F8
04
0E
06
ED
19
18
CD
D8
08
C7
DC
0C
35
1C
0D
1D
27
0D
E9
FC
D2
10
13
F5
1B
12
2A
1D
01
1C
2F
16
0D
05
B3
F1
FD
0B
CD
E3
06
2D
0D
F8
0D
EA
FA
CE
12
D6
07
09
E7
00
F9
2F
F0
2F
15
18
03
18
D4
FA
F8
19
0A
22
D4
EA
E1
D5
E5
2D
C3
DB
05
EF
E2
27
C5
E5
E5
E1
F2
12
16
07
32
E4
30
4A
46
17
FE
FB
EE
42
EA
DB
19
F4
02
D2
E5
F3
F5
DE
0B
2C
0C
C9
13
56
02
F2
FB
34
EF
F2
FC
0E
2E
BC
CC
F0
0F
35
16
F7
E4
F3
04
02
01
FB
1F
F5
CE
EB
EE
E4
D3
2E
FA
F9
DA
ED
CD
EA
0D
14
F1
D3
4D
FC
01
F3
D1
00
E7
D5
FD
3F
F7
F1
E2
1D
D9
E0
11
CC
FA
0D
D9
FA
FD
AD
D7
FE
E9
2B
11
C5
05
1A
DC
F6
F2
DB
D7
48
D2
10
D4
B9
F2
21
F5
D8
F3
F4
DA
F6
BF
23
DF
03
FA
D2
F0
00
14
CC
FD
E4
F7
01
C5
13
EA
D7
EC
CA
1F
11
D0
F9
ED
07
E3
C7
0B
D9
01
03
F0
E6
16
0B
05
0F
2E
BC
1D
C7
D8
DA
1C
00
FD
DB
E2
D2
15
C6
0C
1F
11
16
01
D2
14
F6
01
0B
16
D1
D5
EE
F8
F7
E6
E5
D2
0D
04
DA
FC
F3
10
CF
0F
F7
03
F5
D0
EE
DE
D0
24
EE
DE
E0
F4
FF
FF
0E
EC
E1
F2
EF
16
DE
04
08
00
D1
1E
05
DB
13
D1
D7
10
E2
19
FC
06
32
11
ED
E3
DC
13
EB
E8
1E
F8
15
D3
D7
F4
16
0E
C9
14
16
22
F4
22
D5
02
DB
13
FD
C6
26
FF
24
EB
F6
1B
3A
07
12
2D
F8
F1
E9
E1
0C
15
3B
E6
12
D8
0A
FF
0A
DC
11
F8
11
1B
FC
E5
E8
E4
15
F2
F6
13
D4
12
06
09
33
E6
D8
F3
1F
03
16
BA
0D
1F
13
DD
CF
40
0F
21
16
EE
18
C3
C4
FC
11
39
D5
D2
33
CB
09
DD
33
FE
E5
18
ED
E5
25
BC
FB
E2
01
F4
04
FB
EF
D7
4B
ED
2E
12
F6
13
F7
14
08
07
D9
D6
D3
ED
FC
D1
0F
1E
3E
F5
06
EB
FF
B8
BC
F1
CD
0F
3B
D7
E4
1E
ED
D2
12
F3
14
20
18
EF
07
42
05
E9
ED
17
26
0B
01
38
17
EF
0D
24
18
FA
08
18
F4
E7
0F
04
DE
ED
F0
FA
E7
07
12
C2
CD
E0
00
05
C6
02
01
F1
01
AA
FA
F1
03
03
F0
E2
1D
14
12
0F
C8
F1
D4
DD
EA
DF
39
D6
1E
CE
FE
E2
F5
D8
DA
CE
F5
0D
16
F7
11
0C
DB
00
00
1A
CB
F4
0C
00
17
23
E4
1A
0A
13
3E
29
FB
1B
C5
CF
23
07
BB
1E
E6
E4
FD
06
2F
E2
1B
C8
F8
FF
25
F9
BB
00
E3
23
F8
DB
53
EA
10
2A
D5
1B
E5
E5
06
EF
03
DF
CB
E5
5E
E7
FE
D8
DE
19
02
F7
01
1B
17
1D
03
1A
F6
EC
37
1D
CD
F8
0E
EA
EC
08
C5
0D
BE
F1
F6
FC
26
D2
E0
05
FD
E7
1F
BC
EF
D5
F7
11
FC
DF
1D
E4
08
EF
C0
33
F3
D4
06
29
00
EB
FE
FD
E8
EA
FD
E8
F1
0A
15
E3
02
F6
FF
1E
F5
00
0E
02
C9
F7
F2
30
C7
E8
DB
22
0A
06
10
EB
E0
2B
E8
F1
D8
02
E8
1D
F6
EC
DF
F7
19
EF
0B
0C
F6
F8
1F
FD
13
1C
DA
15
EE
BA
24
EE
37
E3
0B
21
3F
3A
0F
17
CA
11
F5
03
30
D8
0F
CF
30
26
D8
1B
F1
26
F0
F2
F4
FB
0B
16
DD
C9
13
EF
21
05
CE
F3
F1
43
18
62
E0
E7
19
F5
EA
DD
05
15
FF
16
D1
2C
F2
12
0E
D9
1A
0C
0B
F5
0A
FD
DD
E0
27
0D
0C
EF
15
E9
C5
DE
F1
F7
0D
2A
F8
24
0E
FC
E6
27
14
15
24
0B
15
03
1A
31
D3
16
FA
1C
FF
F4
F7
B3
D8
37
BB
D1
D7
F3
02
35
00
07
06
E9
C8
E8
46
FC
F0
17
02
17
FA
B7
D4
24
14
39
F9
23
24
15
3E
16
19
E2
0F
01
22
D9
D9
FF
FD
07
F6
12
2E
0E
DE
CD
1F
E4
EA
16
02
E4
11
08
1F
1C
0B
FC
F0
FA
E5
18
D7
BD
F5
FB
29
F7
1D
15
13
04
03
E9
35
14
D9
E6
F7
2F
F1
05
30
04
E2
EF
1F
9F
09
35
03
13
EB
0D
2E
D1
0F
FE
20
2C
09
F9
15
00
CC
F5
F8
DF
0A
0F
11
FC
03
10
F2
EA
3E
F2
87
18
1D
0A
02
FB
25
4C
25
15
FE
EC
0F
F1
E6
DC
DC
A9
26
E5
16
01
F8
DF
E6
01
12
DB
04
0D
16
03
FD
38
05
FB
0B
04
D2
FA
1C
0B
27
11
0D
FA
03
EE
2E
12
1C
09
E4
B3
F6
E4
11
13
0A
B1
EF
E0
20
EE
DA
FB
1C
06
31
0E
02
00
23
1C
D5
DE
DA
0D
2F
F1
45
16
D2
0D
68
21
05
15
E6
F7
F1
1C
25
0C
1A
ED
1C
BC
F5
28
F2
33
18
FF
06
2F
12
EF
10
1D
0D
ED
15
F9
06
E5
E4
11
0A
C0
EF
44
0E
36
36
11
FB
1D
0A
0B
01
F7
E7
9A
0E
FB
2B
10
1A
0D
16
29
0B
FF
34
07
E3
00
C7
11
08
05
F5
F8
FB
0B
10
02
25
FA
23
FA
15
3D
FE
11
F8
E3
E6
0F
0A
E3
1A
E2
09
26
FD
DC
19
34
16
EA
CB
24
28
2A
DD
F7
10
C7
48
10
36
1C
12
11
13
FC
28
FA
0F
27
04
0B
0E
0C
F6
DD
EA
00
E9
EA
FA
EC
46
03
AC
16
0A
F7
16
FB
08
30
FF
FC
07
0B
12
3E
E4
24
3B
F0
F9
F4
F6
F8
10
43
05
38
01
08
EE
2F
1A
EA
D8
2C
13
E3
E3
1F
E5
2B
CA
21
06
4F
0E
1A
F1
13
E4
10
FA
CB
C2
05
E0
19
FC
01
2E
18
D2
DC
D1
EF
FA
F5
23
12
E7
0E
D1
DF
E2
02
0C
45
D7
1C
CB
FB
E1
F0
FD
05
EF
F7
CC
D4
F5
07
21
08
04
37
12
27
09
14
84
01
23
E2
D7
0D
13
F8
F5
E6
FE
04
13
CE
3E
D6
2B
B9
F0
0F
E0
E1
FA
DC
19
FF
0D
EC
00
25
CA
DA
D9
F2
07
E4
FF
17
03
17
FE
06
0B
17
02
EF
03
F0
0D
D2
D7
F9
FB
E7
15
1C
0C
F9
B6
E8
0E
DF
04
11
03
C1
2C
BA
00
F3
18
1E
BE
F6
A9
EB
36
D7
CE
DC
EB
F5
0B
03
21
07
E8
16
12
FC
01
F6
1E
37
02
FF
31
FC
F0
DA
16
E3
FE
2C
0C
F9
E4
08
C5
F1
F5
E4
0B
E6
EE
0E
D4
22
D3
23
ED
E0
C5
BA
08
C7
FD
DE
05
03
02
F3
02
13
07
23
09
15
08
00
CC
BE
08
FB
1D
1E
F7
04
1A
F8
F0
F7
04
D7
E2
F7
00
09
EB
E9
13
E2
DB
F5
EA
0F
0F
CF
ED
D7
E2
15
C1
08
33
E5
F0
DA
FD
FF
D3
E9
E8
33
05
CB
EA
FB
08
16
01
10
05
1A
FE
E4
43
F1
CB
FC
0D
CF
14
08
08
DB
0B
2D
E7
08
0E
F8
F8
F8
FC
03
0C
15
E9
04
28
24
14
DF
15
E1
EF
E5
D6
D0
00
FF
0C
24
F6
F7
43
0F
00
21
12
F9
12
02
09
28
04
11
BA
E7
F0
F2
37
D0
E0
12
28
FE
EE
01
09
29
F6
F6
0E
66
FD
17
F6
44
0D
30
04
D0
16
2E
FA
55
0A
E7
D5
0F
C7
2E
26
0B
16
04
0B
2E
1B
F0
E6
E6
00
20
E3
1D
A4
12
24
C6
13
FF
F7
E1
2E
25
0A
EF
29
09
23
10
C3
0F
FB
E9
27
16
FE
E2
1C
D7
F1
CF
01
F3
FB
F6
EB
C8
F1
ED
0B
0F
E2
1A
EA
28
0C
0B
1D
20
F0
F7
17
F1
FE
0C
05
B7
FB
C8
08
E9
EA
F8
F6
DE
F2
FC
1B
FD
FC
19
11
1D
FB
EB
F3
FA
D4
F6
F0
37
D7
DB
DF
0E
FC
0B
F4
1A
BD
09
EA
03
EB
E0
29
29
08
E4
16
18
1C
C7
1E
E8
EF
32
DA
E2
DA
E7
E1
EB
D3
F2
DC
30
F8
E1
CF
F5
17
EA
EA
E5
19
F8
07
08
FB
F9
F1
01
1A
21
D6
22
3A
1F
03
0F
3A
2D
0A
11
49
13
C8
04
94
CF
D4
E9
F8
04
F6
3E
02
F2
07
DB
BF
FD
1D
F0
D1
10
DA
35
06
24
EC
06
E4
FA
1A
EF
DA
FE
04
10
00
F9
D9
30
EE
37
1F
EF
20
E3
07
E1
0C
10
E5
E5
E9
F0
38
E3
2F
19
EC
15
F7
09
17
10
E5
F7
11
0E
F4
00
04
EB
37
03
39
1B
E2
4B
0C
F3
F2
17
C0
F0
27
00
ED
FF
CE
DA
15
D6
04
06
03
2F
48
D2
1F
D3
12
F4
DE
1D
E4
E1
0A
27
1E
F1
D3
C6
D7
16
00
20
F2
DA
CE
FF
37
24
19
1B
D1
1B
F4
0C
03
2F
0E
F7
FA
3A
20
20
0B
06
19
F7
EE
17
12
E4
FD
01
11
FC
F6
08
0F
2A
FD
F5
01
0C
00
2B
EE
06
DB
E6
16
08
14
1A
1F
D8
E1
F1
1B
28
2A
05
1F
FD
1F
3E
F8
CE
DC
DC
F6
09
00
F6
F9
1C
21
17
02
1C
26
12
FF
EC
0A
CF
E5
FC
29
FC
CC
08
0A
1A
FA
F7
3E
0C
15
29
F4
04
39
D5
1D
B6
23
10
23
FD
11
36
F1
0A
15
13
EE
17
23
9D
F6
07
0C
B4
17
16
A0
F4
15
5F
FA
E9
01
EA
BF
3A
14
E5
EC
08
EF
FC
15
1A
0E
F9
F2
0C
FE
25
0F
08
22
FE
1D
BD
FC
0D
04
E9
2D
16
25
EC
C3
FB
42
DD
15
29
3C
F0
F6
C9
3A
E1
19
F9
09
12
08
FD
E4
F7
D9
F4
06
46
E5
ED
CB
E9
08
0B
3E
E4
E6
17
F0
F3
0D
F7
F7
0B
F9
AF
1F
07
11
F9
0C
39
24
FA
C6
15
06
00
DE
ED
DE
D2
08
E4
BF
DE
08
2C
11
F1
DC
0B
F0
26
E7
0F
F2
FA
30
1A
06
14
26
ED
1B
59
E6
1D
0F
08
E5
E9
D2
DE
F5
F8
1B
22
1A
D7
27
1E
03
17
FD
E8
37
96
4D
09
1C
DD
E9
13
13
30
E1
28
E5
0C
FE
01
1C
1D
19
FC
0A
CC
E0
0A
FE
EE
0A
14
CA
29
07
1F
1C
08
E8
20
2E
07
E7
FF
FD
F7
D3
01
FA
FE
EA
3E
19
34
F7
D4
24
F0
E8
FC
16
F3
FE
19
0E
F9
F4
5D
50
FB
26
E5
14
30
01
EC
02
D5
2B
01
13
FD
17
02
28
2F
D9
2B
EB
ED
12
F5
04
F5
0D
FF
F9
1B
FB
E0
D7
35
F9
F1
D1
F5
19
DF
0E
D6
D2
DC
FA
05
07
09
15
14
1E
F5
CD
C4
C2
DC
19
E7
D0
14
EA
28
2B
22
CE
D9
02
E9
E4
DD
FD
23
0A
22
F3
CC
ED
F4
E2
00
FB
08
C1
DB
0D
17
FD
E9
32
02
DE
09
0B
C4
FD
16
04
F5
FF
34
28
EE
17
10
E0
17
3A
FE
D7
CC
30
C6
E2
12
ED
DA
FC
01
01
FF
07
16
11
F1
DC
17
11
F5
C4
03
08
26
E5
0B
F7
EC
F4
EB
1B
1A
E3
25
26
FB
31
ED
ED
FF
05
FC
21
0A
34
5B
05
FC
E8
02
14
EC
F2
0E
B8
09
0D
F1
13
FD
4D
F3
2F
1A
DF
2B
19
2F
2D
E1
EE
00
E5
D8
D9
06
EC
D4
2F
E3
F6
0A
E2
EF
32
2B
1E
F3
20
01
16
FA
E3
20
39
58
FD
FE
CB
19
E2
12
1F
0F
FF
08
DF
E1
D3
EA
0C
2A
16
F4
20
F0
29
D8
DE
18
DE
D1
FC
00
16
19
1E
14
35
01
09
D7
0E
BF
FD
F5
09
EA
15
0D
B0
0B
FC
1A
EA
E0
CB
09
C3
DC
33
F2
0E
FA
FB
C8
41
14
18
E5
00
E9
0A
0D
23
DC
13
DC
2C
0A
09
04
01
D3
20
F8
10
1B
CE
24
FB
FE
0D
16
2F
D4
0E
DC
D8
F7
A7
1D
0D
F0
DC
FF
0D
0F
0D
04
E4
D6
10
FE
EA
DF
49
12
F7
FD
F1
37
FA
EE
E5
E9
C0
FA
64
EF
11
26
F5
25
17
F4
FC
E1
18
1C
E4
E9
3F
16
19
EA
18
04
03
0C
D8
F6
F3
55
41
FE
12
CE
F7
05
07
00
04
11
12
2D
3D
FC
22
1B
FE
E6
F6
36
DF
E3
21
E3
0D
07
1A
F7
EF
2B
D2
1C
F0
0C
1B
E0
F1
D6
CC
39
1C
EB
00
3A
31
E2
10
0F
12
CC
B7
05
0A
0E
33
0F
C4
F3
AC
20
46
E1
C0
13
3A
07
3C
FA
10
22
F5
22
36
E7
2D
03
F2
C6
4A
F8
4C
DD
28
F9
39
E2
1D
DD
2D
0F
25
B7
13
F9
F4
2D
FA
24
17
21
FE
37
49
1B
18
F6
FB
2B
EB
0E
13
F0
A5
1B
26
17
4D
DE
1B
DC
1D
07
0C
F5
3C
1F
E2
DC
ED
04
15
FB
06
11
D0
3E
F9
EC
31
FE
ED
D4
F9
EC
ED
F4
1B
52
F6
00
FB
E1
F4
0B
2B
25
02
F3
FD
24
F3
04
F0
F4
B0
AF
29
E8
15
F5
13
1D
51
16
16
0B
B4
E7
22
13
E6
26
E7
13
F0
EC
08
DD
18
07
0B
18
E3
FE
FD
F2
E2
CD
0A
3A
24
DE
E3
C5
00
3C
20
E6
12
03
08
11
D5
34
EE
E6
05
05
D0
D1
0A
12
39
09
11
2F
F5
01
1E
2F
13
F0
02
03
EF
20
18
0A
DA
D3
E1
2F
FE
E8
D2
0B
27
E8
1E
E2
2C
01
B5
0E
E8
26
B4
32
CB
F9
22
1F
01
21
11
0C
23
BE
22
D8
EF
E7
10
E9
EE
F4
19
1E
C9
2A
1B
EB
D5
18
DB
0E
03
4A
17
65
42
F8
2D
EB
28
0B
12
F7
FD
33
F6
FD
16
DB
0E
03
CF
38
FC
22
3E
D6
F2
ED
CB
0F
40
04
10
E7
16
0A
E2
07
11
EB
D1
0D
C1
25
33
1A
14
FE
ED
B1
E1
0C
1D
C7
BC
54
29
ED
16
13
0A
76
F2
99
DC
24
DD
EE
E2
24
E7
EE
DF
53
11
F3
06
D9
F1
3C
35
FE
1B
EF
F8
08
DC
36
DB
D1
E8
0A
04
FF
D3
2E
44
28
0C
EA
28
05
04
E3
C1
20
D3
38
1A
FC
EA
FA
49
DC
D2
F5
C3
2E
30
B1
05
F7
01
29
0B
06
F5
1F
08
BC
17
F1
03
E6
29
27
CA
D5
88
04
31
E9
06
CB
F2
11
09
E8
05
D7
33
D1
FF
10
10
21
1C
FF
F6
FC
E1
EF
D3
1B
17
14
03
22
F5
EE
18
12
29
05
FC
E1
EE
2C
FD
ED
08
E2
FB
E6
E9
FE
F1
D1
27
09
17
D2
02
A7
E6
08
1C
F2
0C
01
21
E7
04
00
D4
21
D8
DF
F7
1A
0B
D9
F2
17
DD
30
0D
F6
0D
EC
35
57
20
E9
E5
CB
ED
09
EF
DB
0E
09
01
27
EF
FD
F3
07
06
23
ED
F6
D0
4B
FF
3E
11
EE
F3
E3
F0
E8
10
D1
E6
F3
E3
F3
FF
31
D8
1D
18
DD
14
BA
EF
06
03
0B
FB
E6
E8
2C
0A
F7
C8
35
F6
BE
99
0E
13
D0
EB
E1
C9
D9
E2
00
FF
26
01
F0
E2
CD
D7
03
EC
FE
07
BD
E6
DE
2B
E0
F1
AA
AC
02
DF
EE
F7
13
D4
DF
FE
E3
27
F0
C2
3F
DC
07
02
1F
0A
0E
25
EF
D9
E1
15
0A
07
01
04
F9
02
22
EF
2F
FF
10
F1
03
18
04
FA
FF
13
01
1D
EB
09
EA
28
F0
EE
22
FB
47
F8
DB
F2
18
E6
EA
E6
FB
CE
0D
CD
A2
06
2E
E0
11
D7
E1
0C
38
16
FB
F2
ED
14
12
D4
2B
10
1F
DD
37
E5
FD
00
19
08
EE
1C
F1
D6
BC
08
C1
31
1C
5B
CD
03
23
FD
FC
FF
E6
09
E1
E4
03
E8
CD
0A
C1
F8
17
E8
23
F9
AE
E3
BF
99
03
C0
EB
05
DC
E4
0C
DD
EB
18
FB
FF
20
F8
E8
13
E8
E1
C6
F7
97
F1
E9
35
19
C0
02
1E
05
19
E4
F9
00
FB
C7
02
D4
13
25
CE
CB
0E
17
07
FF
F4
1D
EB
15
25
E3
11
12
F4
FA
F4
EF
BC
0C
05
22
31
0B
ED
D0
D1
1D
D2
B8
F4
F9
C8
10
F6
01
ED
D6
0A
FC
14
F6
F6
0A
F1
07
25
E2
B1
1C
F6
07
21
38
E6
EC
F7
08
F4
1B
08
DA
DF
0C
C6
C9
F0
DF
0A
FA
01
0A
12
0D
1B
30
19
F2
C7
00
C3
F4
0E
04
E8
EB
3C
ED
2A
06
D2
27
0D
07
B5
CF
E7
D8
36
1E
FD
F9
24
E9
2E
CD
F1
D8
ED
F7
FA
3B
0C
E2
20
F2
BE
31
12
D3
EF
16
F1
01
0B
F4
FB
0A
20
23
28
51
F7
F1
D3
04
DC
18
25
44
1D
13
03
14
27
2C
1D
23
05
ED
13
3A
2A
FE
13
EC
DB
01
BB
EB
F1
16
F8
F6
B4
20
E5
27
52
FB
E3
EF
09
0F
D5
16
F0
13
1E
30
D5
F3
09
C0
E5
14
1D
08
2C
10
14
4C
30
0F
00
DC
05
42
A3
11
2E
FC
E8
D0
11
E9
F1
1B
0A
17
12
10
0E
D8
04
DE
EB
08
2F
F3
30
02
B5
F8
1C
E3
24
B7
13
2B
19
ED
02
D8
F4
F7
0F
19
11
0E
1C
F3
38
27
13
0F
C9
08
C8
12
F7
0A
F8
E2
DD
D0
04
F8
02
03
2D
E8
D7
FC
0E
30
3F
D6
3B
0B
2D
04
C3
C5
11
E2
34
12
FA
0F
FC
FD
20
3F
08
21
C0
E7
2A
26
10
D7
FE
E7
05
31
06
D1
B3
C8
F7
F8
09
C6
06
02
32
20
17
F6
E9
44
CD
03
F7
2E
9A
C8
E2
FF
FE
17
FF
C1
14
DB
0D
D2
E7
37
EF
31
D4
18
EF
08
05
E3
F3
00
06
EC
1D
D6
28
D6
F4
B9
31
BA
C8
FE
01
11
C6
22
C9
31
20
DD
09
02
E9
F7
DE
EC
09
B7
F5
E5
F8
EC
E4
1D
ED
F4
E3
B0
EE
EB
D2
13
CE
F4
FE
DD
03
04
E2
17
00
BB
05
1E
EA
09
C8
C7
03
E0
FA
21
C8
F5
D2
FA
E5
DD
07
18
EA
E5
DE
0A
25
04
DB
05
F6
08
D2
F7
0E
08
F0
0C
20
0A
F6
D7
CD
BC
DD
EA
1C
E3
F1
29
3A
01
E9
DA
FC
FA
FB
1B
EF
FC
00
F2
F6
E8
07
FD
FC
16
F6
16
1D
EA
0D
CF
EA
F1
FE
09
F6
FA
DF
F1
1E
FB
FF
DE
F0
BD
EB
0E
41
0B
0D
DC
0E
ED
DB
E3
FF
09
D7
FC
13
06
1A
09
0F
16
F1
16
26
EB
0D
E5
18
19
10
F1
C0
11
E0
0A
BB
DD
03
19
0B
0B
DF
D5
FE
EB
11
29
03
D8
F9
04
DF
FC
D6
FB
3E
21
ED
EF
29
57
57
EF
05
0D
06
07
2A
07
E2
31
0A
06
EC
FF
DE
2B
10
1E
38
1E
2E
F7
DC
00
1C
2A
F8
F3
EB
E4
F4
D5
02
1D
E8
1A
1F
37
01
EF
F0
12
0A
17
D7
43
07
B5
F2
BC
DA
EC
03
1D
54
09
3C
08
2D
27
E7
F5
24
18
12
F6
0C
14
0E
14
10
21
E2
3F
2B
1D
02
F1
28
0D
1E
15
07
FC
4E
15
41
15
23
05
1C
43
EA
F1
E4
D2
16
F9
00
04
EA
ED
0C
C2
E4
E2
1B
F9
19
EA
13
DB
2F
35
68
1A
DD
1B
09
1B
0D
22
27
F8
DE
F0
1C
C5
1C
D7
26
1E
0C
FF
0A
E1
0D
F2
0A
28
23
2D
E6
B3
18
53
FB
DF
CA
E4
D8
E9
15
07
19
1B
05
ED
02
00
BE
E0
D2
11
28
38
04
D3
21
0C
03
13
BC
FD
15
E4
0D
22
CF
F0
35
F6
D5
FC
E7
00
E1
12
DA
29
BE
21
19
F1
12
12
C9
BD
A9
ED
04
FC
2B
0C
04
08
3F
EE
E7
19
17
D9
21
08
C8
FD
ED
03
EA
F9
0F
17
F3
12
1C
26
34
0E
04
0F
2A
F8
19
EE
10
FB
F5
0D
04
E2
E6
FA
25
29
FC
33
0F
F8
02
04
E5
32
0E
07
03
F5
19
28
01
04
0D
E7
F4
EE
DB
E5
10
0D
18
25
FA
EB
19
3F
1B
20
1D
D0
49
2E
2D
0C
18
F1
C2
10
EF
F4
18
00
1E
27
12
30
25
DC
E7
41
F0
EA
D2
11
2D
00
E3
19
F2
10
F8
E1
1E
ED
D1
0E
3A
2D
1E
E8
D5
FB
F7
F5
F8
F7
03
0D
EB
C1
13
E6
1F
F8
C6
EE
19
EA
E9
F9
F4
CD
E0
F5
24
1C
17
0C
53
14
F3
21
03
E5
21
32
D7
F7
0A
19
F8
09
16
C3
C4
1C
11
EB
17
04
04
5A
1D
26
11
15
12
F2
29
E0
C9
1E
12
26
F8
29
22
D5
F9
08
2E
01
0B
DF
F4
EF
F0
20
19
11
0A
0F
F7
27
07
34
F1
FE
DF
1D
01
FE
F1
2A
11
14
DF
D6
18
3A
0B
05
23
3E
FF
19
D6
14
26
DE
03
07
31
00
17
E5
2E
17
C3
EE
18
E3
10
F8
0C
C2
E3
1F
1A
20
1A
1C
E1
2B
04
21
E6
2F
EC
0A
25
F0
F8
10
03
21
1F
0E
10
EE
1F
06
12
20
03
3B
36
03
43
05
13
19
0B
CE
07
3E
11
14
56
3A
DF
43
D3
FD
0A
CF
1A
D8
04
CC
09
04
ED
1C
09
00
EC
E2
0E
11
0E
DC
FD
15
09
BE
0E
EF
31
2E
09
2E
23
0B
D0
2D
1E
2E
09
F3
37
1F
1A
15
08
C1
E0
CE
C4
E5
1B
2D
FF
17
EE
E8
0C
FD
20
08
11
E8
F7
13
EB
13
0B
02
1A
E4
E9
D8
F6
07
F8
18
29
F7
F8
F6
09
01
65
E0
01
BB
10
02
F3
EF
0C
22
DA
E8
13
06
F9
02
F4
18
D9
0A
F9
16
22
1B
F2
E4
DD
0C
15
D7
EC
28
02
DE
0C
E2
13
D8
14
0D
10
43
F7
26
17
0A
0C
2C
01
FC
1F
F7
F1
D0
FE
24
D4
D7
D7
21
C9
29
EF
DF
B8
06
0F
F7
1B
17
F8
13
BF
0F
FB
0D
F0
0C
F9
0D
E1
C3
2E
09
1E
26
D7
02
FC
02
DC
B2
D7
FF
0C
06
0F
3D
3B
22
4A
DF
09
FD
0E
E2
FB
29
E3
07
26
E4
41
03
1E
4B
34
DB
16
2D
1E
13
F0
09
E8
17
01
FC
FE
03
34
0B
03
E0
0A
11
13
DF
FD
FA
1E
28
E4
1B
07
1C
D6
FA
0D
EA
01
15
25
DC
F8
F7
27
3F
16
E6
15
32
1B
F1
19
02
06
FE
F9
F0
EF
DE
2F
45
DD
09
02
15
E4
D9
DF
00
02
F3
FF
1F
0C
32
15
DC
E2
15
03
0D
17
F9
32
F6
48
F2
FD
00
0B
E3
08
22
15
12
DC
1C
FA
2F
D0
0D
FA
FB
0D
28
45
DE
F1
2D
1F
FD
FC
14
11
DF
EA
E4
12
C7
3A
26
E4
22
55
29
07
06
F9
39
2E
40
EA
E0
19
CB
ED
DF
0A
3B
D2
AB
D4
FA
37
F4
30
FC
F9
EF
C2
FB
2B
FF
0F
10
17
06
1E
0B
F1
09
F6
2E
56
E1
FF
E4
00
12
16
F6
DB
16
03
22
ED
07
03
17
E3
F3
12
D3
2E
26
DF
2E
0D
E2
01
E8
F5
47
F6
16
2C
16
FB
0C
03
08
0D
0E
F6
06
1B
32
E6
F9
3D
42
29
02
13
E4
E9
13
F9
A7
04
ED
EF
F7
DD
F5
E8
04
09
EE
10
EF
C6
E7
0A
3E
34
00
0A
1D
11
18
52
E9
F8
0F
40
F6
F3
B3
F8
FE
D3
FC
01
1D
07
0F
F3
F4
F6
43
1C
FE
14
0B
1C
57
12
D8
0D
E0
E5
35
3A
37
20
0C
0A
22
DC
F5
15
01
EE
68
FE
B8
FC
D6
31
29
05
DA
14
FB
42
2C
FE
04
05
02
EA
1F
07
21
E8
F5
0C
0A
1D
0E
F5
13
11
41
29
0E
D9
E8
EE
EA
FC
0E
E9
02
F3
09
EB
EF
07
F0
FE
D9
04
43
1A
EE
08
DC
D5
15
F7
04
2A
04
32
05
D9
4A
EF
FA
EE
1F
FE
32
F8
40
09
DD
0D
F4
03
19
D6
2D
1C
D2
03
F5
FB
32
E9
09
2D
0F
30
E7
C6
DD
1D
E9
F4
BC
F8
1A
F3
C3
D4
2A
F3
2D
4A
18
E5
EA
07
1E
E9
E1
3E
EE
EB
19
38
04
04
E6
3A
1C
03
DD
C9
ED
BB
EB
1B
30
16
BB
3C
CC
24
12
F6
BC
04
57
ED
DD
3B
F3
F7
F3
2F
E5
F1
1C
01
11
06
14
00
F3
E0
ED
02
D1
3B
CF
D5
28
12
0F
F6
D0
10
04
EA
EF
1C
F8
1B
F5
12
F6
24
CF
D1
DC
26
D7
FC
DB
1D
AA
13
13
C6
BB
14
E5
0B
BB
01
C6
E9
EA
DD
F4
F6
2C
C5
06
BE
FC
1B
10
E0
3F
13
31
DD
06
C9
18
F2
39
0C
C0
CD
10
D0
08
E7
15
09
FB
2F
F6
CC
02
DA
A1
EA
FF
E7
0C
F9
C8
F7
DB
DB
EF
D8
DA
D7
12
FF
2B
F5
C3
16
F2
F6
D5
FF
F9
0F
F1
CD
C5
D7
DB
BD
10
C4
29
E4
3B
16
FB
BF
B3
FD
FE
20
48
EF
D1
FF
EB
1C
FF
26
06
D2
EE
E3
16
E1
04
17
E3
D5
F2
09
1E
C9
14
FB
F2
EF
F0
1C
FE
11
1B
30
02
E2
DB
08
0B
D9
14
FD
EF
BD
DF
E2
27
34
1D
36
F3
00
10
FA
CD
EA
32
AE
21
3B
2A
B5
FE
0D
2D
E0
F0
04
E2
D1
17
0F
09
19
E1
CE
06
C1
E3
0D
02
FC
CC
1E
EE
1F
FE
FD
EA
E6
00
04
D1
0A
DB
E5
37
3E
06
02
CD
EE
F8
08
FF
F4
F0
E1
F0
C1
3F
F8
E2
E6
E4
25
24
FD
18
21
FB
D1
2D
05
06
F5
FA
F8
F1
DC
03
F1
23
0F
08
25
22
FB
17
CA
05
24
30
D4
D5
FB
DA
FB
DA
FC
15
13
04
F3
F9
19
4C
FF
1A
06
B7
11
0C
0F
18
ED
0A
17
D5
C3
39
14
06
16
02
1A
19
DD
24
16
17
D3
E8
DA
E5
00
D0
11
F3
D6
AD
D7
12
03
18
EF
0B
09
FA
E6
18
D1
CA
FC
21
1C
0C
00
C3
0E
F4
11
F8
FF
20
17
F2
F2
EA
F3
F5
D7
11
03
FD
FA
CD
D8
0B
3F
F5
1A
23
F2
38
E6
D9
F3
F5
1A
CB
CE
19
19
FE
D8
F7
D5
DC
02
F8
C5
44
0E
EF
35
39
19
DB
14
D7
01
0C
43
FE
FC
F4
FF
0C
F5
08
C8
E7
08
58
00
07
3D
02
45
C1
10
1D
19
0E
05
18
29
1B
28
F4
E3
22
69
1A
E4
37
ED
23
FB
F1
0D
E7
16
30
F5
F8
EF
08
F1
31
2A
FB
B0
2A
EA
0E
FD
F1
DC
1C
13
18
13
04
19
3B
06
EC
F1
C5
DF
15
0D
E7
B6
0F
19
C1
FC
28
EB
DC
40
EC
EB
08
11
CF
E6
EC
E7
D2
04
1C
27
2D
06
2D
EE
D4
F4
DE
21
27
22
25
5A
16
ED
EB
F3
EA
23
ED
E9
CE
FA
CF
F2
10
0F
D5
FB
0B
E8
26
F9
FA
0C
08
0E
EC
0C
05
FB
B2
0C
1B
D9
02
2A
0C
2F
17
E7
3E
1E
05
FD
15
2C
F7
F5
25
14
0F
EB
08
69
06
0D
24
EB
24
0F
F5
2D
34
F2
D2
06
0B
FF
14
21
00
E0
28
F7
FE
15
E6
3D
07
0B
0E
DF
0D
E9
43
3A
DA
0F
19
ED
F4
29
15
D9
10
F6
11
21
DA
D0
1D
C3
0E
EF
09
E0
F8
17
28
F2
E2
38
E7
01
F7
AB
F8
05
DF
04
1B
FC
E3
0B
D9
E4
F9
ED
0E
1D
10
DE
E3
F9
E0
12
18
24
01
E6
1D
36
0B
08
09
17
E8
11
20
F0
3B
34
EE
F1
EA
E2
12
32
06
FE
27
FE
05
35
25
F7
EA
00
A2
DE
01
FD
E9
12
1D
DC
F9
E7
0C
0C
0B
09
0C
05
1C
C6
FB
42
F9
EA
D4
07
E5
E4
DA
E5
1F
DF
14
1B
DF
FD
DD
0A
C5
C0
19
E4
10
19
10
13
D0
E8
B4
E7
10
39
EF
18
05
20
15
F6
E6
DE
1A
E6
D5
15
D7
E2
1D
16
14
00
19
E9
FE
DF
F8
F7
17
1B
EF
14
F5
FE
C7
0A
F7
3D
D0
D6
1B
F5
1A
0D
FB
DF
EA
F3
4E
E7
E0
F0
04
14
13
D5
E5
3B
BD
E7
38
E1
2A
EF
12
05
3B
F7
FF
DF
DF
AF
CC
14
0C
D8
F5
F4
F2
02
DF
D0
25
08
0B
FA
ED
0E
22
FD
0D
E4
0A
BD
FE
BB
EF
09
19
E1
E1
11
D8
06
D1
0D
DB
09
C9
D1
D1
28
3C
ED
19
DD
9B
30
CE
E6
C4
0C
87
E6
20
FB
4B
43
D2
C5
EA
F7
38
0E
E6
40
F1
E4
F9
FB
02
F0
CC
DE
0B
E1
2C
2B
02
D2
F8
ED
D3
D5
E8
FC
F9
E9
04
DB
FC
21
AD
FB
F1
FC
E5
FE
F8
26
0B
FB
CD
01
FB
F4
FF
EB
1F
E7
E8
47
41
E8
22
02
4B
10
DB
0D
36
0C
F1
DA
F3
EA
03
FA
DA
67
0B
4F
C7
FA
20
19
0E
13
0D
1B
CF
C8
0C
F7
FC
02
15
0C
18
CA
E2
FC
ED
FD
1A
15
F3
1C
F6
F9
B1
E3
0A
21
44
EA
D5
CB
38
08
2B
36
28
DA
F4
FE
DC
0B
01
F6
FE
E3
D9
B8
F2
0E
F4
DE
FA
18
11
25
10
1E
EC
15
E5
0C
09
F4
E8
0B
40
E5
E7
03
D9
FD
E1
04
CE
E9
FE
CA
A9
1F
03
DB
EE
D8
F3
E9
16
F3
F4
F1
2A
E4
F5
F5
E2
E2
06
F9
E6
18
23
2C
F1
C0
0A
F5
F7
EA
20
03
21
CF
F9
E7
E7
02
E9
17
21
D5
FF
BF
EB
CD
02
FE
3E
E1
F7
CB
0F
17
1A
29
F5
27
DA
13
02
09
E1
F8
00
FD
0A
0F
E9
0C
EE
0F
DF
0D
01
22
D9
EA
12
0D
17
01
05
CE
EB
34
02
ED
E1
B8
F6
F0
09
F6
D6
F6
CA
BB
10
08
F5
32
0E
08
FC
D6
2C
F1
D6
C2
F6
E1
13
D6
0A
E9
E6
C7
F9
F0
E6
EF
CC
F9
B8
14
FC
3A
1A
14
28
1F
19
19
18
04
EC
C1
F4
D9
EE
E9
F6
1F
F5
0C
CC
18
17
0D
F1
E7
DD
A6
E8
16
1B
ED
09
16
D9
DA
DE
F0
0B
F1
D6
EB
D5
08
0E
31
C2
CE
04
EA
F9
06
F3
FB
00
10
F2
33
1C
12
F4
E3
23
18
18
07
04
CC
D6
F3
7F
E5
E4
DA
E9
CD
04
FC
16
FE
20
F5
4D
F7
F2
F3
F8
CE
05
1B
05
27
3A
FF
33
E3
F1
1A
06
0C
E8
23
08
16
F7
EE
12
14
2F
22
EA
1B
FF
21
19
56
61
1D
E8
16
45
11
F3
11
40
24
DF
15
09
24
EE
DF
1A
3B
E3
21
1C
EB
F8
E6
DE
F3
F8
1E
0B
D6
EA
1A
16
2F
F2
2C
2B
CF
B7
28
11
F0
1D
0A
0C
F3
0A
FB
02
0F
0C
DD
DE
1E
FC
06
16
AF
F2
0C
D1
0A
27
DC
0B
0A
EB
F5
FD
F5
07
00
DB
0D
0D
D9
3F
FC
F7
F4
0E
0C
03
0C
EF
10
EE
31
01
FD
1D
F3
F0
05
E6
1F
18
24
0B
E3
F9
FE
19
EB
D4
5D
07
08
30
ED
22
40
22
14
0C
0C
BB
E9
10
FE
14
02
0B
F2
26
37
15
25
1D
05
20
3D
0D
08
CE
BF
FC
F9
45
2A
28
14
06
EF
E6
10
3E
E4
EE
01
F7
3E
23
27
12
FA
26
19
0E
1B
FA
23
1B
49
F3
EF
21
EC
CD
01
F3
F6
FE
3B
12
F1
06
DB
17
F8
E2
1C
FB
FB
EF
F9
EB
09
AA
F2
16
15
08
F8
2A
10
34
22
02
FD
FB
1D
0A
F3
16
FC
E1
1F
29
0E
0B
2B
09
FE
CB
DB
06
08
D7
DE
2B
1E
1C
18
DF
DB
35
C9
CC
E9
0E
ED
23
F3
0E
ED
FF
DB
11
0E
D5
44
D3
17
D7
25
E7
07
35
F2
17
03
D3
41
1A
3E
44
F5
F7
0F
0E
F1
1E
1B
F8
00
32
03
1E
DD
F7
17
09
F8
1F
49
CD
E6
1A
E0
06
05
FC
FC
FB
F9
18
0A
F8
C4
E5
1B
CA
ED
51
24
DE
19
F2
FF
F8
E6
00
D7
F2
10
D2
30
D2
D9
FF
18
FD
FE
21
DC
F3
E3
DB
E3
19
13
46
1C
EF
00
2D
FD
D7
E5
EE
D0
CA
F2
EB
B4
38
20
1F
2C
D2
D3
25
18
D4
DE
F1
E1
2E
F6
21
E3
E4
1D
F8
21
FF
14
FC
0B
0C
CC
F7
21
EF
C0
F4
EC
3B
20
CE
F9
FF
CA
F2
1B
07
CB
DF
DE
19
03
0B
0A
F4
FB
11
06
05
11
EB
3A
DC
FC
EB
E0
E1
CC
13
01
E3
1B
5F
F8
BF
28
EE
18
05
C1
E5
C7
E8
BA
E6
EF
0D
FB
08
F8
13
08
F0
E8
FA
0D
F0
E8
0F
10
EA
14
10
C5
2F
FA
FE
EF
F4
E9
14
CF
E9
E5
12
EF
FD
BB
D8
DF
F7
31
35
FF
FA
EC
1D
DD
FE
E8
23
BE
04
D1
09
F9
05
E9
DC
0F
16
FB
EB
0B
F4
31
1F
F9
0E
49
E9
E9
0A
23
2C
08
02
E6
D4
F2
16
0C
D8
05
1D
18
EB
20
31
F6
D7
F3
0B
C8
FB
FA
E8
2B
21
0E
1E
1C
DC
09
15
21
0D
FD
03
0A
F5
1B
9F
02
C8
F6
27
1B
D0
0D
EF
16
B5
03
30
23
06
F4
1C
EF
05
E6
FB
E7
F3
D4
B3
1A
2A
E3
F8
D3
06
E8
F1
2F
F4
05
F6
D6
E7
0A
DC
F7
EE
FC
FE
2C
21
CD
D1
FD
FB
E8
F8
FE
D8
ED
E0
1D
FE
03
06
CE
E4
18
03
1F
0D
16
34
FF
D9
FD
E0
F5
06
F6
22
0C
F6
EB
F6
39
05
0E
CE
EF
2D
DC
C0
E0
EA
F2
16
E1
FE
F2
2C
0F
FF
CD
D8
07
EC
D3
DE
DE
FD
1E
FD
0B
FA
FF
DC
D8
E8
C3
CB
03
06
01
E8
04
01
A1
1D
0B
DC
BE
A4
0D
F3
36
09
C6
E2
00
13
07
FC
E2
DB
11
FD
ED
DA
00
23
0C
30
EF
02
05
F8
C4
13
28
EB
E1
0F
19
06
E2
20
08
09
E7
EE
01
30
1B
F1
ED
BD
05
16
F6
12
FA
FA
E7
1C
FD
44
1B
08
20
E4
03
46
DA
45
0A
26
3D
14
2C
ED
23
FC
E4
25
D8
E6
F6
16
F1
34
1F
F6
E6
F8
58
FF
22
04
ED
23
F2
E7
05
22
34
ED
09
04
C3
D8
1B
22
FD
FE
EC
09
0C
08
C2
ED
13
29
3E
2A
F9
D8
16
CB
F3
DC
F9
E1
26
0F
D0
F4
0F
BE
DF
FD
0A
FD
E0
DD
27
20
04
29
F1
D8
DE
02
D7
EE
02
19
FF
02
EF
DC
D8
0C
29
16
03
CE
F2
04
F9
24
13
EC
EE
FD
C8
1D
F2
38
17
EE
06
06
C1
17
1A
1C
15
30
DF
E5
2A
DF
06
E5
C4
44
D5
0D
20
37
04
06
06
EA
E7
0A
21
B8
FC
16
48
43
02
AF
FC
FC
00
FE
03
E0
00
F3
D9
E2
0E
10
09
04
F4
E2
28
18
14
F4
F6
F7
15
1E
DD
CC
0E
20
E1
EB
39
37
13
2B
D4
CB
FE
CD
09
1C
F8
E7
D6
E2
D0
E2
D7
18
FA
1C
E2
F1
F5
DE
0D
B9
0C
F5
D7
E7
CF
00
07
14
2E
09
C3
E0
17
FA
E7
21
D4
01
22
13
05
D5
F7
14
D0
11
A6
D3
EB
DC
0C
F3
2C
10
F8
2C
03
E2
0B
F2
DE
D9
F7
DF
0D
E4
C3
FC
42
F0
0B
E2
06
0B
DC
19
D3
F4
C2
2A
05
E9
0B
06
12
1F
05
0A
DF
D9
12
06
E7
B6
1E
10
D8
16
BF
CE
10
16
F4
21
E0
DE
D8
D9
0C
0B
D7
FA
D8
15
E9
23
08
55
0C
E6
F4
CB
C9
F5
1B
43
15
0C
FD
F6
03
E7
F1
38
DA
30
EC
EC
F1
FD
F2
17
1E
27
1F
00
D5
F9
10
0B
05
24
01
06
B8
11
05
2A
1D
E2
0B
2D
FE
6C
05
1C
B8
C4
C1
04
B9
32
EF
1A
FF
31
EF
D5
E2
14
09
29
F4
17
EC
BC
FB
F0
1D
E2
07
17
41
14
06
E6
C1
3A
1D
2F
36
33
15
E5
F1
E5
02
E9
09
1A
1F
FD
0F
23
39
18
E1
15
05
F6
1D
18
06
F7
00
C9
2C
CA
08
06
F5
00
D7
F1
0B
21
E4
E7
F1
FA
ED
0E
01
BA
F8
CB
EB
3B
DE
30
4F
0E
1D
E3
EF
05
F2
F0
05
EE
0D
E3
00
E7
F9
F9
34
E8
30
E9
25
21
22
1A
27
C1
26
24
E7
40
F8
FC
30
2C
F4
13
F2
2B
F2
E9
FF
31
F9
1B
2B
0B
05
FC
00
1D
EA
E5
E0
09
35
1B
E6
FD
06
F1
1D
36
42
11
04
F3
EA
03
16
F5
D0
41
E6
14
07
F8
30
53
FD
0D
14
DE
DE
F4
22
E3
D9
D5
2D
EF
E7
17
CB
09
D7
21
6D
01
F3
DE
14
03
FC
EE
E7
09
57
D8
0D
EA
CC
26
16
F4
14
E6
58
23
00
28
0A
10
1D
D0
FE
22
F6
0B
E2
1F
BE
0F
1B
12
15
26
D0
08
1B
18
F2
B2
CF
07
01
08
F3
E7
27
EB
24
06
E2
DD
D8
D0
DD
DD
3B
0B
17
05
20
F8
EC
E1
4F
FB
E1
F8
D1
F3
CA
F9
3B
1D
E3
DB
09
FF
0B
0F
F3
1A
DD
20
2D
FF
FE
F6
08
1D
ED
32
CF
FC
C1
EB
ED
DB
FD
1C
0D
EB
50
EF
30
34
DF
DB
F2
BF
E1
D3
E6
00
D3
00
F9
47
B5
DB
ED
05
E5
10
CC
F7
14
FB
D8
D7
11
F7
EA
0A
DC
0B
CE
03
CE
0D
00
EE
DB
F5
0D
EB
D6
0A
F5
F1
D5
06
2A
FE
0E
01
DA
16
14
12
12
E5
DA
DE
EC
1D
01
BD
E6
08
D4
23
F8
36
13
F8
E2
D1
0F
E1
12
E4
06
41
E7
00
BE
DC
16
BD
ED
01
EA
EB
20
05
E8
26
09
E7
E0
B8
BB
EF
19
E8
0C
F2
2A
BE
EE
16
DA
01
0A
D7
F8
0C
FC
DC
0F
09
F6
33
17
23
E6
E3
CB
F3
1D
10
39
2C
6D
E6
06
F9
25
F1
F2
2B
3F
08
0D
F8
29
EC
2F
E3
AA
CC
05
30
EA
39
2A
03
22
16
00
24
03
14
CA
EE
1C
05
FA
CA
41
10
E2
22
FC
E2
E4
0A
0B
22
52
22
EF
2A
11
05
12
21
F6
0E
15
DD
C7
20
20
09
08
12
01
FA
FE
35
10
E2
EF
05
1E
0E
03
17
FF
FD
DE
11
04
08
15
F5
0E
1F
09
C7
0E
12
E2
D8
D7
11
F0
08
EA
0D
01
0D
11
15
07
E4
D0
E7
39
15
FE
1B
EA
02
F5
EA
FE
0C
FE
D6
E9
25
10
06
24
14
FC
FE
1C
08
2E
EE
07
F0
13
0D
00
CC
15
EB
34
00
F0
FF
FD
27
20
02
D2
09
03
3E
E2
C5
FB
F2
5D
FF
1F
F1
0C
25
05
FC
FC
06
35
17
12
F9
E1
E6
F0
E2
1A
0F
11
17
CC
EA
0B
2D
1A
4E
FD
BC
11
D9
0B
C9
E6
EC
D2
07
F4
13
1A
FC
F4
03
C4
E1
21
EC
00
D3
FC
C2
1C
0A
FD
D1
05
03
24
01
D8
F3
CD
08
ED
0C
EA
2E
E4
E6
CD
D4
2E
37
C5
0F
1F
E8
06
F7
E2
ED
E2
0E
1D
D9
10
01
E0
E6
C8
01
E4
B4
E7
E6
1E
E5
0E
2A
D6
CD
EE
A5
0F
09
F2
3F
1E
EB
E8
07
25
CC
08
06
09
E4
EA
1B
0C
39
DB
12
11
18
FB
DE
14
E4
19
CD
C3
FF
D2
14
F3
C7
08
05
EF
12
DE
EF
3A
19
CF
03
00
17
14
01
E3
F9
EC
01
F5
D9
00
E0
01
CD
F6
22
15
20
B3
F4
B8
1D
FF
CB
23
00
EF
D0
22
F6
01
BF
EC
06
10
21
F5
0C
FC
04
10
1A
0E
02
26
0E
D5
15
27
D3
FC
E3
15
FD
CE
52
F4
ED
2C
06
16
DB
D9
01
0C
E0
E6
24
03
0B
F9
EC
F1
E8
D7
FD
E5
E6
F9
00
27
00
F3
DA
F1
42
D8
E2
FC
0E
F4
F2
FB
CA
CC
04
E8
F1
16
E9
15
F0
05
F0
E6
09
D7
C8
3C
15
F9
0B
C4
C9
F3
05
BF
FE
F5
08
27
EF
F4
F2
37
F7
02
39
02
D8
FE
F1
11
B9
D1
EE
FE
0F
EC
DC
F6
DB
51
0F
F6
10
16
E8
02
28
F8
F9
E4
E4
09
F5
C9
F0
F0
ED
1B
16
19
EA
E6
32
D3
E1
F2
D7
1A
CB
DE
E9
E7
E2
F8
D5
ED
2E
18
E5
23
E2
0C
15
EB
BD
01
12
00
F5
1B
CC
01
FF
F8
E1
ED
13
48
04
54
C1
EE
0A
DE
F4
14
06
0A
09
17
F6
D1
DA
00
D7
78
41
06
FF
F6
06
E3
08
F6
0A
E8
D7
C1
E0
2B
22
FF
0F
22
D6
1E
F8
15
08
02
B2
EB
EF
F5
41
F2
0E
FE
FD
14
D0
F9
06
39
ED
04
0A
E2
E8
E6
AF
0C
E3
F7
06
12
B8
F0
E8
FA
C2
B4
30
03
FC
EE
E1
02
D8
A7
DB
CA
C5
DD
05
F3
0C
17
0B
21
F8
F6
F4
E2
14
DD
09
BA
E2
26
F7
BE
D4
FE
54
BE
01
2B
09
00
18
B9
38
F9
E3
F1
18
E7
DC
EA
07
BC
D1
FC
EA
FB
0C
2C
F6
3A
1B
16
07
FA
28
F9
ED
26
19
01
13
2D
F7
42
18
05
04
12
FC
04
E6
17
4B
0E
FF
FC
FB
06
4F
01
0E
C9
E3
E9
FE
C3
24
09
21
08
0A
E7
FF
07
20
D9
11
05
03
17
23
CA
F1
EC
B7
39
09
2D
00
0B
F8
EC
FD
F8
E6
CD
DA
E3
25
15
04
02
FE
04
C0
07
03
EB
DE
F0
1C
FF
24
C2
E5
F2
DC
EB
3E
0E
E5
E8
22
13
32
01
C5
E5
D3
11
F5
0E
48
04
1B
05
3D
12
13
C0
2A
CE
04
09
EE
FB
13
EE
0C
08
27
F8
00
0C
D7
03
C7
1B
BA
FD
E8
C9
0E
ED
9C
E5
1B
F1
E5
FC
E9
0E
03
0E
EE
D4
15
1E
01
16
17
E0
FD
E9
D2
F8
A4
CC
22
CA
FC
CE
F2
27
05
F2
20
35
CD
FF
27
02
1A
E2
D3
EB
0F
09
D0
19
10
0A
E4
0D
2C
FC
1A
EE
0E
EC
D9
0F
FB
EF
2E
08
E8
D5
0A
EF
03
1E
2B
1F
D4
F5
10
20
15
F8
03
E0
26
05
06
DF
14
C2
C8
0F
00
28
F6
19
D4
E3
D9
12
ED
E7
11
E0
DF
F1
1B
FA
ED
25
DA
FB
23
F1
EF
DF
3A
FB
E6
FF
D2
F6
F5
0C
16
D3
E2
16
0F
EA
0C
D3
1D
DB
E8
E3
F0
DA
E6
E3
D0
EF
0C
FE
36
E5
FB
B9
D9
0B
E5
E6
E2
C9
E5
E2
E0
06
DA
EA
2B
13
EB
E3
07
C5
F4
DE
38
EA
C4
07
E0
2C
C6
21
D0
16
1C
36
15
32
28
FC
22
DC
2C
E6
33
16
D6
DD
C3
02
FF
FF
25
22
EC
05
2B
2F
E9
1C
DA
FB
21
2F
D0
FC
14
0A
1A
F2
C2
DC
2A
0A
F8
01
CF
F9
08
03
2B
F5
E5
23
EF
FB
E1
30
2C
4D
03
04
20
E0
F9
1B
E8
35
F8
1B
05
FB
29
15
EB
EB
E7
FC
01
ED
2D
CE
11
0D
07
C0
06
EE
39
DF
0D
FD
17
38
F9
FE
10
23
12
BD
2E
CE
3B
FD
04
FF
F9
05
F0
C9
CE
02
0B
18
E0
1A
EF
FE
36
DC
1A
EC
CD
0D
F3
48
01
0D
EF
F2
1E
04
F8
F4
03
F0
BC
9A
FB
EC
1B
FF
21
D9
FF
C0
1A
EC
FF
CF
07
F5
FB
EF
EE
22
1E
01
05
47
0C
B6
02
BA
DF
04
18
0D
FF
06
DB
13
2E
0D
E4
FA
22
F3
04
02
DF
B9
C6
27
E7
FA
FB
04
10
EE
27
FF
23
28
F3
FC
20
0A
DE
0C
01
E4
2A
01
E0
0E
15
DE
FE
D6
F2
C7
F4
03
14
FA
F3
F6
E3
FF
C0
CC
0B
14
03
0B
F5
2B
F1
00
D9
07
E2
22
03
EB
0D
0D
10
0D
F9
D4
02
D8
D4
1C
D2
EC
F4
F5
06
D6
B8
DE
E1
F5
0F
1E
05
E0
E2
00
0E
09
F9
04
F0
D7
C1
1C
CD
B0
29
E0
FF
EF
0A
2E
F4
EA
29
DE
D2
FD
27
29
DE
23
23
00
D0
DF
DD
19
34
31
05
18
11
E3
E4
16
F5
EA
E9
54
C3
FC
F1
1F
DB
0E
F9
12
DD
13
F4
04
17
EE
4E
F6
02
03
F5
DC
23
00
07
0E
00
E5
03
4A
E6
F5
E0
D8
19
DF
F4
23
20
F2
F8
F4
E7
1F
E5
E5
0A
B7
17
EB
E1
E5
C8
F7
0D
1D
D3
D4
F2
00
E1
E2
F5
EF
FD
24
30
1E
E2
03
34
0C
DB
0B
0C
EE
16
03
FA
AB
E8
E7
E2
CC
F1
FE
FF
ED
3A
FD
15
FE
FC
0F
03
29
D6
10
01
F5
BE
C1
17
CD
CE
03
FF
EA
18
04
08
A9
03
2E
0A
1C
12
09
00
25
03
CC
06
FC
D2
16
FE
32
F3
1F
F9
F1
16
08
17
C6
D9
D5
1B
08
18
E1
FA
F5
09
EE
01
E7
D8
25
F8
0C
02
F3
17
E9
38
04
FA
DB
F8
30
24
FA
11
08
15
E4
C1
0F
DE
22
38
34
F1
02
FE
25
4E
C0
18
FD
15
07
FD
E1
DD
F7
13
18
4E
02
19
3A
FD
D7
CC
CB
DB
EB
41
F8
0C
2F
20
EB
1A
3B
03
2A
2A
22
04
18
D9
EA
E7
F9
1B
05
F0
F6
04
36
FB
1D
E0
D3
31
06
1F
28
F3
0D
14
25
27
E8
C8
D7
FA
26
CC
1B
05
E7
0D
E0
20
10
37
DC
F5
FC
35
2B
09
F1
27
BE
3C
0F
FD
2A
20
25
06
34
F7
EC
32
08
E3
0A
F2
E3
1D
E4
D6
10
00
4D
1D
45
FA
11
3F
1C
FD
E3
E8
38
FC
F7
DC
B4
04
EC
F2
F6
2F
12
FA
D9
CE
F0
FA
20
D1
FF
E4
2D
EE
E9
DF
DA
0D
F3
20
27
F1
D9
0F
20
12
FF
24
B6
FB
1B
F3
0D
0A
44
00
D6
E0
D7
03
01
EF
F1
DA
F9
F5
16
F9
FF
27
DB
C2
12
E9
19
13
E5
F5
35
EB
0C
24
02
E6
EF
FB
D5
F8
13
CB
F7
12
4F
10
DF
C2
EE
F3
E1
02
51
D8
10
07
E5
CD
F1
EE
F6
C1
02
03
12
CE
28
4F
35
00
22
F3
42
08
15
2A
F8
DF
E0
08
E2
C3
E0
36
00
DF
ED
C2
0F
F4
14
12
EB
14
10
03
18
31
25
2D
F9
29
14
E2
08
D5
F1
CD
F6
F7
10
DF
0B
FE
0A
00
F0
2C
07
07
E4
E8
CA
5C
DB
FC
02
1C
05
ED
E0
16
42
C9
0A
01
F1
FE
F0
24
08
38
E8
E5
05
01
D7
01
16
0B
0C
EC
06
0C
15
34
0F
E6
0A
28
07
23
E4
12
EA
B0
0B
1F
F9
D6
19
DE
15
1E
F9
16
0B
E2
F3
1B
FA
24
0E
01
09
1B
00
F2
E7
DC
EA
BA
2B
D2
10
2F
24
FC
07
FE
FD
10
E0
2E
FE
07
D1
BB
FE
EC
01
F8
F8
05
F4
E2
E8
EB
26
11
FD
F3
0A
EA
2C
D4
EB
13
EC
02
CA
02
B6
EB
37
05
FC
F5
02
EC
C3
30
ED
00
E2
26
E7
1D
F3
05
F7
C6
E2
FB
22
07
12
31
C1
1D
0C
BC
F3
DF
F0
0A
E6
F1
FE
E9
44
E5
15
2A
FB
FD
0B
DE
F9
00
17
07
C5
EB
E8
40
F8
04
FE
E3
F3
38
34
E6
06
CB
FA
D5
08
DF
E0
E2
CD
0E
2B
E4
08
F6
E1
E1
16
1B
F7
33
C7
EB
E9
DA
F4
13
DC
FB
10
F5
F9
E9
00
2F
E6
C8
D5
04
F1
DC
12
CF
E0
08
C1
B8
DC
01
FD
01
06
12
E8
11
17
5B
27
E8
E9
F6
19
EA
C0
1E
FF
12
E6
46
0C
09
E2
02
BD
06
D7
CF
EF
36
31
19
19
ED
A2
07
F0
12
0C
0A
F6
E4
FA
FE
B8
E7
13
27
00
04
B8
BD
08
1E
F5
EF
E3
1F
F3
D9
53
F6
FC
03
18
EC
DC
E2
03
21
FF
FD
05
11
EE
E6
02
CE
E5
D5
E4
41
1B
0B
EC
E8
F3
06
08
04
EF
F1
D4
0E
F2
09
21
E7
08
DC
F0
F6
DF
DF
CD
02
23
DF
C0
05
34
BF
FD
12
1E
CC
BB
C5
CB
EC
E7
B7
CE
F8
04
EB
F7
0B
C7
EC
FF
0A
D5
FE
16
FC
06
FB
20
F4
E4
E8
15
D4
17
FA
FC
E7
EE
F0
E6
14
26
3A
FC
FB
05
13
00
F1
13
01
08
F0
D2
22
20
BD
08
14
F0
BA
E9
F0
E8
DE
09
0E
ED
25
1E
07
17
F8
20
D0
F1
E3
16
FA
05
18
04
3A
C6
CD
02
45
F2
D6
DF
32
F6
2A
E6
02
08
07
2F
1E
F0
1F
1E
15
E7
EC
07
D0
E0
0B
E8
D2
B9
FD
ED
D6
07
1D
0C
CA
04
12
1B
FE
FD
FA
F9
19
44
D0
F2
12
FD
0F
E7
0B
E7
F8
D8
F3
08
CF
C8
25
07
D3
E8
F7
D3
F2
26
E6
E4
F8
E3
1A
50
32
02
00
F5
EE
11
CA
D6
21
FA
E8
BD
C4
DE
28
E5
01
44
0B
C9
F4
C3
08
33
0E
29
E7
E9
11
19
C3
12
28
CC
13
D4
E7
E7
12
16
BD
DF
B8
29
BE
04
F6
21
06
0D
ED
2C
EF
2B
2D
DC
23
11
FE
DE
CC
27
AE
E1
D7
17
90
00
DE
EF
27
FB
FC
10
0F
D1
19
F2
BA
B2
08
DA
E0
FD
02
16
FC
1F
F5
1F
DD
10
1B
04
E9
ED
F0
2B
E7
F8
D6
F7
0C
30
CC
1A
DB
B9
17
12
11
FE
0F
E8
F4
15
B3
17
10
02
10
00
04
0C
BA
F3
EF
14
EB
E7
0F
11
DE
F6
06
23
F2
0B
14
E3
A5
EE
FD
13
04
22
EF
DB
15
0F
F7
ED
0D
29
EF
20
10
1D
DD
F0
E8
F4
01
08
DF
F4
FA
F5
DF
02
F5
C9
30
15
F5
E6
D1
FF
05
00
F3
EC
18
FD
ED
0E
FF
F2
16
BD
03
EF
0E
39
EE
E2
86
F7
F8
FB
23
08
EF
EE
F8
17
1C
20
14
0B
D4
19
D0
15
13
10
E1
22
C6
E2
28
F4
F1
D4
E9
0B
E7
E6
DB
04
E9
F2
1F
3D
FE
ED
E5
CF
0E
E0
0A
D0
D9
F9
B3
48
E7
CA
15
C9
31
1B
0A
FF
0A
25
FA
C9
01
28
EF
DD
CD
F3
D9
0B
0B
DF
25
0B
FD
CC
EB
FF
C1
06
0F
F0
31
D3
E8
CC
D3
20
10
EF
F7
E0
C2
22
E5
01
F5
F2
E0
15
E7
08
13
E3
D4
0F
EB
F8
EC
D8
FD
BF
E4
2F
41
25
B7
1E
F8
EE
FA
05
B7
D0
5B
11
16
EC
FC
D3
D7
1F
E3
F1
22
06
01
42
D3
38
C7
1D
F2
FB
19
E7
59
F1
F4
CE
E9
E1
08
EA
E9
18
F4
38
1F
32
13
FA
3F
E3
F9
F8
E8
E4
C3
F0
E0
DC
F2
E5
F3
D7
FB
F0
F6
1C
CA
EF
F2
DB
2B
29
E2
17
26
E5
D1
32
19
1A
1B
02
3C
FE
25
24
F6
10
15
E8
3F
D8
42
E5
EA
1D
0F
0D
3B
EB
2C
CD
13
17
D9
F6
F8
00
EB
0C
E3
03
1B
D1
F7
FF
06
E6
05
EF
01
0B
FD
51
24
1A
3F
E1
EE
25
F8
1E
10
0B
A7
F7
2F
E1
D4
BB
DE
1F
3C
16
0B
0D
F2
18
FF
CF
E4
D0
C9
0B
1A
DF
66
1B
FF
D3
0C
19
1E
00
0B
20
01
F9
F8
F5
01
11
DE
CD
3B
E5
F3
F3
EF
FD
F6
FB
04
C6
28
FE
F5
35
10
12
50
FD
07
AD
04
FD
F5
F5
1A
F0
1A
0D
CE
1B
F7
1F
25
20
B8
14
D5
64
1A
FA
23
CC
EA
13
EE
F1
09
F6
E5
00
0F
F7
0D
17
EC
29
D2
0B
1C
23
0B
06
16
29
EF
1F
CB
D7
2E
FB
25
12
10
EF
10
F4
18
04
DC
2C
ED
15
45
1D
F5
2A
CF
11
35
1A
FD
FB
FF
0C
23
FD
2C
1D
FA
EC
06
3A
0E
FE
09
12
00
36
37
22
F6
05
10
39
B6
CD
2F
09
33
E3
E9
F6
E1
D9
EC
FE
18
13
22
E7
E1
E6
FC
47
FD
DD
23
DF
E7
0B
27
F8
45
11
F4
E0
0B
24
45
26
11
21
25
3F
5E
1B
08
41
F4
1D
1C
E3
09
1D
E5
0C
24
FC
D9
19
C1
F2
DF
46
E0
FB
15
E5
2C
15
CC
FE
12
F6
20
EE
FC
1B
D6
D3
32
FF
FE
0C
E9
E8
F2
1D
C9
EB
F9
1E
47
F5
44
1D
15
E6