AB
DF
D6
27
F4
0B
F5
25
ED
09
31
31
D4
1A
44
E4
F8
18
18
2C
FF
F1
2F
26
F4
C8
DF
FC
F1
1F
EE
09
16
B4
FE
D4
EE
23
11
30
F1
E9
DC
E5
CC
D3
35
E6
0D
E3
E0
0F
E2
F3
E5
DD
26
15
F8
20
E3
FC
10
1D
15
F6
FF
09
F7
EC
0D
0D
F4
05
E4
E2
F6
ED
10
09
E4
D9
17
07
FD
FB
03
17
FF
F3
2D
B5
E2
E8
1B
D8
D8
ED
07
15
DF
07
EF
1D
13
E8
F6
DF
DD
E5
09
21
FD
0E
DE
07
FA
1D
E0
06
D7
C6
11
DC
41
36
F4
D9
0C
E9
B2
0C
03
FB
F8
3B
F1
20
F5
C5
E1
25
20
1E
0A
E6
F1
EC
07
E8
17
D1
FC
F2
FD
ED
FA
E2
E5
14
2F
C7
35
18
00
EA
02
E2
03
14
03
0D
EF
E6
E9
F7
01
EA
DD
2C
FF
F5
06
F1
EA
D7
07
F5
FC
5A
1F
1D
FF
FC
E4
1B
05
F2
FF
01
E2
FD
0D
36
05
1E
23
11
10
FB
14
06
06
F1
FC
F7
2A
CB
14
18
0D
F6
06
01
05
37
11
1F
01
E3
00
F4
E1
ED
1C
EB
EF
10
D5
39
2E
30
09
DA
DF
19
1A
FE
D1
E4
21
06
22
D3
FE
1E
22
EC
EC
DC
D1
30
3F
3D
FE
1F
06
D7
F8
18
FD
11
01
03
B8
02
FF
FA
FB
24
D7
F4
1B
F8
D1
D6
FD
E9
D9
EA
FB
F8
E8
F5
ED
CD
03
07
17
E3
E6
EC
08
FA
E9
CD
1D
FD
E4
F9
12
F1
FF
F7
FA
F2
EE
44
19
E2
06
F5
10
F1
F3
07
F8
DF
02
FE
09
11
1A
F1
22
F0
25
D5
25
E0
FB
18
05
2D
00
05
D3
21
D8
07
20
FE
E6
0E
06
F6
03
4B
FF
14
EA
F7
2D
17
DE
30
03
E5
E4
04
C0
05
09
30
F5
2A
EA
EB
12
21
FB
17
03
EB
E0
FF
11
E4
F3
02
09
0C
F1
19
0C
F9
13
BD
EB
39
B7
E6
C9
29
03
1D
05
2A
F9
18
DE
E2
15
0C
0D
01
F7
15
DD
23
15
01
30
14
07
CA
1A
EA
E6
E0
FF
00
D3
35
EF
0B
0C
0C
09
02
2B
3B
F7
C2
ED
03
E5
D3
03
B9
DA
F8
F6
EA
CC
03
1F
F6
FA
FE
10
FB
1F
F8
F8
FD
07
2E
CE
DF
D1
1A
0A
F8
ED
0B
0A
30
08
F2
EE
FD
F9
F3
FC
38
FC
FA
EC
D2
F8
CE
F5
D4
F1
FC
19
D5
DD
F9
07
E3
0A
EC
E7
05
ED
1B
0A
F6
0F
E1
21
06
10
21
07
50
1F
E5
EF
0D
F8
EE
F4
05
BA
FD
E9
0B
D5
1A
C7
F7
FF
E2
03
49
03
EC
EC
F0
F5
D8
00
F7
CB
F1
C6
E7
EC
13
FB
FC
E5
D9
02
0D
11
E3
F6
E0
D2
D9
E4
03
CB
1C
DB
06
D2
05
05
F1
F5
DE
DF
F5
0F
3D
F7
F8
FC
C6
F5
0A
DC
F5
02
0D
E1
EC
F2
17
38
19
C5
F9
1E
21
1A
28
21
31
2A
D7
12
27
D1
4D
DC
27
EC
EB
3A
EF
E6
CB
07
EE
F7
F5
CC
00
E6
F1
FF
F6
E5
F2
09
40
1C
24
00
FA
34
B4
C9
0E
AC
03
C5
07
E3
ED
01
36
F6
CF
08
DD
FF
F9
C3
D8
F8
E9
0F
FF
1B
3D
E1
F3
BD
F5
03
F0
18
B6
27
25
DA
E9
45
F1
F5
13
D0
F6
11
EC
BC
12
D5
EF
14
E2
1D
F7
5B
04
F4
EF
11
C6
0E
03
19
EA
CC
E9
F4
C4
F5
0C
0D
18
EB
E9
19
D4
D2
D6
D5
0C
F7
3A
07
28
BB
E2
EF
23
20
D2
FE
15
F4
1C
E1
FF
E1
0A
E8
DD
07
07
0E
12
FF
E8
02
FC
F4
33
15
31
F9
1E
36
3D
05
CD
F8
E6
F2
1E
FF
DD
08
0F
F3
C2
F0
2C
D5
F7
EE
06
15
FE
D2
F7
1E
19
1A
F4
E7
E7
21
DA
11
EA
0E
23
DB
C4
54
F0
0C
21
08
DC
02
C9
E8
F1
01
F8
19
E8
E4
FE
13
09
09
FF
09
F3
12
DA
0F
EE
13
0E
EA
3A
C6
F2
DD
29
02
17
FA
09
FD
F7
FB
12
03
0D
FC
FC
05
09
FC
EB
FB
28
1C
33
07
F1
32
D0
00
08
DE
D1
03
10
20
1D
F8
E8
32
0D
1C
ED
FF
F7
F5
AD
0C
2D
1B
F7
DC
0E
1F
2A
FA
02
F7
C6
00
08
02
E7
D8
C1
08
F0
03
CA
F8
05
EF
E8
05
F1
10
48
F9
FC
F1
1B
30
06
12
0C
0B
C1
32
10
05
F5
EE
EA
D8
01
02
E2
1C
27
DD
F0
DF
06
EF
07
11
E9
DD
00
01
31
2F
C8
22
D4
F3
FE
F2
17
DD
F2
05
0A
F9
1F
F8
D0
1B
0C
29
28
06
F7
EA
2B
19
FB
E2
04
27
C2
2F
0B
F3
FB
02
F2
2C
08
F3
E2
16
2E
EB
07
15
0C
24
2B
1E
27
D2
CE
D6
DB
ED
23
2A
03
48
D4
F2
D8
E7
16
EA
D1
E7
E9
17
D7
EB
E9
EC
ED
0A
22
F9
F6
FC
EA
0B
04
F5
F2
1A
F3
08
F7
12
F7
FF
22
16
F8
07
DE
F8
00
E5
1F
E8
22
16
29
E7
19
C6
1B
0F
18
1B
E7
44
F2
17
18
37
EC
E3
EF
03
1F
EE
05
00
F3
2B
ED
FF
1E
D2
1E
0D
02
0E
2E
E7
26
EF
01
E6
F4
F0
DD
15
C3
D4
F9
33
20
0C
E6
D9
05
32
11
E9
25
D9
D5
1E
FC
F6
11
D5
E5
00
E8
F9
0A
11
FB
E6
24
19
1F
F7
F5
0D
DD
F7
0B
E5
C7
21
1F
CC
05
03
14
12
F4
32
F0
10
DC
06
F2
D1
F5
1C
D1
16
04
16
F2
D4
F0
D0
33
4F
20
E5
01
E5
F0
31
1B
F5
30
02
1D
EC
E0
0B
1E
06
F7
FB
FD
21
20
1B
DE
EE
D6
00
00
EC
08
DF
21
16
EC
05
03
EB
BF
F1
D1
0E
04
09
ED
02
D5
29
1E
0C
F9
FF
DF
F7
D7
FB
0A
F3
05
19
AB
28
29
17
F6
0A
EF
F7
F6
DF
24
32
FE
01
EC
17
D7
0D
09
12
0C
D3
F0
E2
2F
D5
03
12
14
50
2E
0A
14
E7
DA
ED
05
FF
08
D6
FE
FD
15
E6
18
01
24
32
F0
01
3A
11
FE
EA
E2
D3
EC
18
46
3B
E9
F0
BB
CC
0E
D4
29
0F
DC
0C
F9
D9
F7
E4
11
03
0F
15
ED
F4
31
05
05
F6
21
14
11
C7
D5
F0
F9
D2
DF
D3
0B
EB
03
FD
1C
17
FA
FB
FB
0D
2A
05
F1
E3
29
C2
F6
02
0E
0F
F4
F8
2B
D3
13
E2
1B
F5
1C
19
D9
FD
F6
EF
F8
F9
E5
15
FD
31
00
17
0E
EB
24
E7
F2
38
DD
F3
09
FB
E8
CC
13
27
0D
FB
D9
0D
0F
F6
0A
3C
BB
00
EF
26
06
22
FF
27
F0
E2
EE
C9
D3
0E
30
EA
D3
0F
E2
EC
E2
EF
F5
F4
01
0F
28
18
40
DA
DB
09
02
01
DC
1C
0B
EC
F4
FD
ED
09
FC
0B
C6
1E
F8
F1
F1
0B
05
1A
1F
0E
F3
FE
EA
17
E6
E3
17
F2
1C
C0
E9
D4
FA
EF
F4
1C
FE
0A
21
EC
E5
26
04
F0
07
1D
05
FB
16
22
E9
EB
E7
D3
CD
F2
B1
07
00
19
12
22
D2
F8
FE
12
01
18
FE
E3
1C
21
F7
0D
EC
F9
0B
2E
F2
FB
10
CA
1D
CF
FD
21
DD
06
0D
FD
C8
FE
F2
FF
07
FE
E2
06
1B
CE
F8
1D
13
B9
DA
FB
31
D5
07
E5
DE
DC
E9
D1
F4
AD
17
FF
F0
E6
EC
E0
1D
15
25
0C
EE
CE
BF
FD
09
0E
0A
39
D6
CC
F9
C7
DA
EA
22
05
03
11
FA
C4
A8
08
ED
DF
0C
F2
FB
DF
2B
12
FE
E7
F4
E4
D1
FE
DE
FF
1F
D4
19
CA
20
12
F4
D7
BC
FE
F2
14
0D
F9
0D
00
D4
FC
2B
EE
11
F4
23
BB
0F
FB
E4
F3
2C
F5
D8
7F
08
14
E9
F9
E5
E5
0C
F3
FF
0F
22
FD
24
32
FA
10
CE
15
F9
21
F5
29
ED
EC
FD
C4
2E
14
D2
ED
18
DB
D1
F5
E9
07
07
F8
30
ED
C6
FD
25
F6
F2
CF
ED
15
DD
F6
17
29
ED
0F
C6
27
EA
F6
FC
FC
FE
40
16
0B
10
FD
05
E9
FD
03
D6
3C
03
F4
0A
01
2C
09
F6
E6
05
11
11
CB
23
1C
01
0C
0E
C9
E0
E2
F0
16
F1
19
1A
16
18
32
EE
D5
1A
EE
F9
E2
21
05
11
EA
F9
05
E6
16
14
E7
1F
1E
FE
E6
F7
08
13
19
1E
07
01
05
DC
FF
21
32
E2
E7
DF
25
F4
D5
DA
C6
34
28
1A
18
31
0B
F1
E7
0D
E7
F1
CC
11
0D
E7
D6
DA
D8
FB
F2
0A
04
F7
FD
19
F9
EC
09
0F
E0
EB
FF
EB
ED
1A
0E
0E
03
F2
1A
C2
FC
11
F8
F5
05
E6
1B
04
07
DD
D9
39
40
F8
08
12
A5
02
F1
16
33
29
E4
05
D9
0C
DB
58
F9
F5
19
FD
2B
16
15
10
D7
10
D1
ED
00
D4
0C
23
17
FA
DE
F3
20
F5
0C
08
E9
F7
09
DB
21
E4
B8
0B
17
EE
F4
F6
EB
07
E2
E4
C7
33
20
C1
BE
FF
0A
15
2A
DD
FF
00
E1
18
E1
13
3F
2A
13
FE
FE
E0
06
03
08
FB
E9
E8
FA
11
01
FB
FC
EC
C9
E9
31
19
08
EA
00
0E
E0
01
E1
F3
01
0B
F1
F7
EB
15
EA
10
D7
18
05
FE
1F
ED
E7
F7
C5
DF
29
F6
00
0E
23
F6
D2
0C
E9
13
D1
0E
FE
D8
0D
CA
F2
EE
D7
FF
D1
34
F7
0E
BA
04
0F
0E
1A
FE
0E
C3
F9
D0
06
F7
1C
46
18
13
3B
26
E6
F4
DA
03
24
17
16
06
20
33
05
DA
FC
15
FC
1C
1A
16
0E
10
20
18
01
F1
F3
F5
FE
0A
E7
FC
34
E1
DC
DC
16
C2
F4
F3
EA
D4
F2
0A
D8
BE
14
12
E0
E1
01
F8
FA
E5
D0
09
08
20
12
FF
FA
EF
FC
14
DC
1F
E6
05
30
1B
EF
EE
C8
0E
08
08
1E
07
F1
FC
E8
24
30
19
04
FC
DC
10
E9
17
FC
FA
CA
F1
0F
2A
F4
F3
F7
F3
DC
09
CB
CF
E4
2B
02
15
07
E9
D9
23
05
F0
F4
F6
17
02
21
25
0C
06
E0
F6
26
E1
FE
05
E2
DF
2A
EA
0E
E9
ED
31
14
F0
F1
DD
34
F5
D8
FA
06
F1
47
F2
0A
17
2A
F1
F4
E9
1B
0F
FF
1A
20
CF
14
E2
FC
21
E7
AD
F2
09
39
0B
1A
0C
00
02
07
0B
1D
FF
D3
BF
2D
C4
DD
E4
E0
DC
FD
D2
E9
0D
BF
DB
D5
F4
04
E7
0A
D7
EA
32
F9
2C
49
43
D3
FE
0B
F1
DC
29
29
19
0B
E1
F9
2F
2D
DB
22
F4
12
16
E2
28
00
0C
FA
E8
F9
08
F9
0D
E8
E5
19
EE
EB
EE
34
EC
17
09
F0
04
F4
ED
D8
04
F2
FD
E3
FF
16
05
02
25
D3
0D
D7
29
F8
0C
EF
E1
F1
1F
32
19
CE
F6
DC
DB
D0
45
EF
F8
43
E4
02
FC
FF
D0
0E
D9
01
0D
12
F9
ED
1B
1D
0E
FB
F6
C6
C3
12
F8
41
D6
2C
EC
04
CD
19
1E
3A
12
EF
1A
F4
0D
12
E6
03
07
E6
1F
16
EB
F3
25
20
01
FF
0B
1E
10
E1
F3
24
17
EC
04
F3
E8
F7
04
11
10
E4
E8
E8
D2
E0
1D
0B
0A
06
23
E6
28
EE
C6
14
C3
15
F8
27
B6
F3
08
D6
F4
D8
06
EE
EA
E5
F9
0B
C0
FF
0E
DD
F2
E4
1F
F5
2C
16
19
04
F9
F7
E9
F0
05
00
F2
D9
15
BF
13
CF
11
07
07
0F
FE
F1
F9
E9
D4
26
F5
D7
0F
14
E9
22
DB
2B
DF
00
FD
DE
CF
CE
26
0E
DB
02
38
0B
04
01
F9
22
E6
21
E4
E8
06
09
1C
D9
F0
25
0B
E7
35
ED
10
EE
D1
EA
31
18
0C
26
39
FA
E7
1E
17
F2
E0
BD
17
1D
FA
40
C6
0C
1D
14
F4
EC
14
08
06
FF
E5
08
ED
DC
F6
FD
E1
ED
18
C5
1E
20
10
00
ED
F4
1B
EF
F5
F7
1E
EA
DC
23
13
15
06
C3
F5
D9
F8
F2
F2
12
26
F0
E1
11
10
25
BF
ED
01
F3
FB
EA
F3
E2
EA
15
F6
DA
EA
10
06
DB
07
18
1A
11
C0
42
1C
F1
2B
FA
F5
16
D3
07
F5
C7
F5
0F
EC
E4
18
09
11
16
FD
D7
EC
BD
E7
F9
C5
EA
D5
FE
EF
F7
18
2C
FC
2C
26
EF
07
DE
F0
15
DD
F5
FF
08
10
13
17
EF
1E
F7
F0
06
17
0C
10
0B
2A
EA
FC
0B
DC
FC
E5
3C
21
22
0B
FC
D9
AC
E4
DD
33
19
F4
EB
2A
26
3E
E2
E4
2F
DC
0F
D9
F1
E2
11
07
FF
06
F6
02
C5
1C
02
02
ED
F7
F3
F8
1C
FB
19
17
10
E3
13
08
09
F6
DB
D4
F1
E8
58
F5
00
F3
FF
F1
BD
03
FE
F1
06
F7
FE
E0
F9
05
E0
F6
F6
E9
36
18
F1
F2
FC
EC
26
18
FC
E2
AD
12
F1
3A
FD
02
EB
F1
01
0E
DA
5D
02
26
F0
D1
DB
2B
0C
4C
DE
28
D2
DA
33
FC
C4
E9
17
0D
23
EF
E4
08
1D
FE
F0
08
F4
16
C6
07
E8
28
3B
EF
FC
DF
0B
17
0C
09
06
08
F2
19
3B
1F
0A
F9
03
CF
27
24
33
07
EA
EA
DD
0E
D4
0D
D2
D2
F5
10
CE
EA
F7
27
FE
F5
F4
B7
21
F3
07
CF
16
04
E5
F0
19
40
1F
0B
F0
13
21
10
0D
06
E8
EA
FC
F6
1D
11
0D
D3
32
F1
FA
04
2E
DC
14
0C
DF
F1
E7
E4
EC
2F
CA
15
13
14
E7
2B
D2
01
D8
C9
F3
F2
C2
04
22
0E
E6
E7
F4
F5
1D
1E
ED
D9
D0
06
F6
F8
34
28
CC
DD
B9
E9
9B
D5
FD
0B
FD
32
13
01
FF
F3
05
E6
04
F5
0B
2C
02
12
D4
04
E3
EA
08
1A
09
D2
CD
E7
C0
FC
29
0F
D6
F0
24
11
2F
E2
C5
D8
1E
9F
FA
3F
E8
E8
EA
DB
F8
DF
07
C9
FA
C6
D9
05
2F
02
03
04
05
E0
01
1B
F6
01
D2
12
E6
04
E0
D0
EF
FA
DC
ED
29
F2
26
16
F4
0A
D7
0B
BC
2F
E0
FF
F6
13
40
06
01
02
06
AC
F2
05
EF
17
DA
EA
34
14
F0
FE
00
0A
FC
0C
F3
B6
D2
12
D0
1A
EF
A9
37
08
0E
04
1B
F8
01
26
E6
CE
DB
C4
E7
38
EE
0D
F3
F3
1B
FC
00
9D
14
EF
BF
30
36
2E
EC
01
BD
15
36
1E
D3
E2
23
EC
DB
31
D3
24
21
FB
32
16
18
0C
2A
EC
E8
D0
01
E5
E4
19
0E
FF
20
29
ED
05
1E
FD
FF
09
FA
03
FA
08
19
33
F6
1F
FF
E7
F0
06
0E
FE
19
10
19
EA
CA
EF
EF
F6
CC
FA
02
ED
E7
E0
17
E1
F4
F4
00
F3
19
DE
23
0F
CE
04
0F
FC
04
06
F2
28
1B
D9
31
45
16
06
E3
1E
1D
DF
11
12
FA
F3
07
ED
EF
0B
E9
DA
14
EB
0C
F7
09
06
0A
F1
EA
22
15
0F
06
F5
1A
02
07
F9
2B
00
E3
EC
35
0A
0B
FE
DD
FC
FF
2C
EC
E5
0B
E4
02
CB
2E
2D
D1
19
EE
00
F4
34
E6
14
21
04
D4
29
E2
0A
F5
04
C2
E7
25
17
F1
F6
0C
06
F2
F3
17
D1
09
16
FD
E4
14
05
09
08
0B
D8
F3
07
EF
F9
09
EA
05
D8
EF
EE
DF
12
05
D5
27
05
39
0B
15
EF
25
E1
EE
04
13
F5
1A
BA
0C
EB
F6
04
DD
04
DA
F8
F2
14
FB
C9
22
17
0A
1C
10
E8
1A
F1
E7
1F
D5
FB
CE
17
FC
08
08
C4
1C
FA
DA
D3
FC
FE
2B
F6
DF
FB
17
EC
0E
08
E5
F0
F8
F3
D3
11
26
F2
09
1B
03
D7
09
DD
33
09
F5
14
F5
D0
20
01
F9
25
3A
07
36
F8
1B
D9
08
FD
FB
F6
2A
0B
0A
F4
0B
F1
DC
04
EA
05
13
12
E6
ED
1D
C7
23
12
F5
05
31
F0
FB
F2
29
EC
00
CF
FC
00
03
13
CA
05
0B
20
27
E3
20
12
03
32
0A
EA
2E
0F
3C
EF
2A
FF
DE
33
16
E8
01
22
D2
F8
25
D5
13
26
FF
19
17
CF
1A
CC
17
E1
DE
05
DD
D6
FB
E3
FF
F0
FD
E5
09
FE
C8
FB
0C
C5
10
3B
F8
FE
FF
D8
F0
D6
F0
F8
40
E5
08
DD
F3
0C
EF
EE
1F
EC
1C
27
EA
D4
F6
E3
FB
15
CE
F2
1C
07
E9
09
11
CC
CE
02
11
E9
F2
DC
E5
F7
0E
EF
D1
0E
FA
13
22
01
05
E0
1E
1B
38
17
F8
F8
0E
F0
C5
EC
F1
F5
1C
4D
E5
07
04
01
15
0C
17
07
F8
01
C8
DD
E5
E9
24
2B
F6
D5
1B
F3
DC
FC
F3
1C
F8
11
EE
DB
EE
F6
D1
32
3D
1F
14
2D
F2
DB
20
FB
10
D7
00
24
DD
07
03
10
0D
0E
40
01
EC
DB
16
DE
DE
0C
36
E7
10
F9
FD
1E
13
FB
BA
00
E3
06
E5
EF
40
BF
E9
32
ED
FA
19
2F
17
E1
11
EC
F3
BE
E0
04
09
0D
61
25
F2
14
F5
29
F3
FC
1C
F2
11
DD
0A
22
FC
FE
07
E6
EA
17
E2
00
F7
45
FE
01
00
03
FB
07
FB
F1
F1
E3
CF
02
F3
FD
0A
1E
EA
FC
F3
ED
E0
F1
ED
08
E6
04
D1
FD
F8
F0
1D
39
26
EC
10
0D
EF
25
DD
FC
10
14
F1
E8
11
D4
05
ED
24
DB
F6
D0
23
F4
32
E6
FD
E7
1B
FA
2A
1E
F0
E3
19
C8
0F
FB
F1
F2
DC
1B
1F
10
06
D1
15
E7
D3
27
0F
EA
ED
FC
45
E7
EF
F9
16
04
F7
D6
38
C8
20
FE
42
EB
EB
E9
09
F5
F2
06
08
02
FA
17
1B
FA
D3
F9
F7
ED
F8
E0
09
F0
1D
01
18
F7
E9
1B
FF
09
F6
12
F7
EE
EF
DF
17
DC
0D
22
13
1F
02
D7
E1
FD
1C
2D
01
D2
FF
14
03
E1
FF
F2
05
10
F1
F9
E5
06
DD
26
08
0A
26
E4
F4
27
03
EC
0A
EB
F5
00
FB
EF
C9
B1
2E
10
BD
01
1F
2F
F1
D9
E4
17
F1
0D
31
E7
38
3D
2E
EF
EE
42
1F
22
FA
10
DE
FF
F1
00
D7
D0
02
18
F0
13
FE
E7
0A
D5
EB
03
F4
E9
F3
D3
31
E8
2A
0B
2D
F6
BB
F2
38
E4
09
29
2C
4A
FB
FC
05
2A
0B
E1
3C
2C
1A
10
FF
E4
FF
1A
38
F8
ED
C5
24
F1
2F
F1
07
D6
4C
2E
FD
1B
1E
28
1C
0F
D5
E0
0F
E3
3B
D5
FB
28
FF
FA
CD
16
FB
0E
3C
F1
D8
E1
F2
04
FA
F7
07
F6
DF
18
F6
D8
CE
F4
29
D6
F2
07
E4
28
09
BF
28
01
EA
F7
E7
FF
E4
F5
F4
23
07
1A
E0
DB
1D
FC
EA
EA
FB
08
F8
29
F5
C6
D4
31
29
C5
F2
E2
FF
02
15
B6
E2
E5
F0
1D
20
EA
01
D4
23
0A
11
FD
0F
ED
49
22
DC
EF
FA
0B
04
C6
18
FA
E1
E7
E2
26
02
EA
FB
CF
CF
0D
07
F8
F3
E5
FB
FE
E5
37
C2
D2
FB
19
F6
DC
23
07
C0
07
0C
ED
F2
2E
E7
F6
24
37
D0
FF
F5
01
34
FC
00
FB
0B
EF
08
F2
FD
05
F7
05
DD
D4
02
E0
F2
41
DF
E8
2F
07
FA
F7
23
DF
FA
D9
12
26
11
E0
0F
DA
E5
2A
D3
C4
EF
E5
E3
F2
F4
1B
EC
FD
ED
35
E9
13
24
0E
06
04
2A
1D
EE
E7
26
0B
E6
E3
1C
E2
DD
4F
0A
02
EB
F9
18
0E
1A
28
EC
E0
E5
2D
1D
2B
07
F9
F8
1F
E7
F9
0A
1F
0B
EC
DE
FA
E6
CE
FD
F8
EF
0F
F2
17
14
50
FC
0B
E3
17
1E
08
FC
13
F6
F1
F9
ED
E4
19
10
F0
02
E4
FD
DA
EA
D2
B4
0E
05
F6
DF
E8
2D
B9
FC
E3
0C
0C
17
FF
12
FD
01
22
FA
02
ED
ED
0A
15
E1
00
E3
2C
F5
E3
F2
3D
C3
FB
F3
09
C7
EA
FD
F5
F9
FC
05
03
E3
13
E4
B8
F7
ED
06
33
E7
FF
16
FF
3D
06
E1
18
FE
FA
18
23
ED
F9
F2
ED
F1
E2
D0
E3
00
DB
F9
E2
3A
FB
FC
F9
20
07
F3
F2
D3
08
EC
19
EB
13
2E
2B
D3
D5
06
FC
20
D4
F2
07
E6
0B
06
C2
0E
CA
2A
10
24
2D
28
DD
FD
FD
F5
0B
03
17
01
E6
29
34
04
F9
01
23
02
FC
19
F9
11
20
18
20
25
E9
12
07
ED
B9
16
11
45
22
D3
33
9E
21
2F
22
14
2D
FF
25
FE
1E
00
EB
E3
1C
E3
13
FA
E3
12
EE
F1
1A
EE
17
FC
F6
19
1F
EC
E5
D9
0F
02
00
08
01
E1
D7
A2
EA
D9
DF
11
0C
2F
D6
2A
FC
CA
02
D7
DC
DF
E5
1D
DE
FF
01
14
03
06
17
D9
DD
EC
EE
FC
E8
14
05
EC
EE
F0
E7
14
20
30
10
30
0C
DC
FC
0A
DA
FE
03
EC
F4
1E
E0
BE
E5
E2
DA
08
18
E4
F6
1B
03
19
D8
F2
D7
EA
F7
0D
F4
20
0B
20
F9
09
22
E9
EA
E1
CC
DF
1A
03
E6
F9
21
FE
D7
F3
39
14
21
27
1C
D4
EE
08
05
FF
17
F4
F3
2A
00
13
E6
E4
E1
1C
0F
22
E6
29
EE
19
27
C2
08
E6
F2
E6
F0
FF
EF
E6
1A
D2
2E
17
0B
FD
0F
FB
2D
06
E3
CE
10
EA
EA
16
E4
07
F1
21
14
0F
F0
F9
13
07
E1
12
E7
32
EE
C3
EE
F1
FD
E7
03
FC
31
F1
F7
CC
DF
ED
FD
FC
0E
0F
FA
ED
20
0E
EA
0D
C1
25
3B
E4
F7
E9
E7
D9
ED
EE
E7
29
25
1A
F2
3A
03
1B
E7
E9
00
E9
18
04
0C
09
D8
03
14
EF
13
06
F6
EE
0D
FC
F7
ED
3C
CE
0E
14
DC
F6
F9
E3
D8
FA
30
12
FD
01
C8
0F
1B
D5
3A
03
F9
E4
1B
EC
1C
DC
EC
2C
F8
E5
18
F6
EC
FD
CC
03
FA
E5
FD
28
09
E8
EA
EA
EB
E7
17
F4
ED
D1
1A
F0
D8
01
F3
0A
CD
FE
E1
10
02
ED
09
CB
1D
04
CC
F6
39
33
0F
EE
FB
15
FD
D7
20
EE
E7
FD
05
47
E6
CC
C6
F3
DA
E4
28
E1
04
30
15
D9
FE
FD
04
21
1F
16
03
00
1C
FF
E8
1A
FE
20
03
19
09
03
21
E1
F8
13
02
FD
07
FA
02
26
31
DF
25
F7
EC
2F
0D
F5
16
11
1C
1C
F2
06
1C
E1
E6
16
F4
12
F7
AC
03
E8
F7
F1
EB
0A
08
0A
1E
FF
06
EA
DF
E6
12
D5
1C
1A
1B
B5
F4
D8
B9
CF
C4
F9
11
EC
F0
11
0B
ED
1D
D8
EC
21
FF
2F
D3
04
F9
DD
16
F3
F9
C4
EE
FE
D8
FD
00
0E
D1
E3
1D
E0
06
35
1A
FA
F8
DE
0E
08
E8
26
0A
12
E6
DE
F8
20
FE
2A
C0
06
CC
BB
F1
DB
3B
37
11
34
B8
22
E5
EB
23
01
ED
1A
F6
F2
FB
E6
F8
09
F9
09
19
0C
29
E9
01
09
03
02
0C
05
06
09
EE
1E
EE
FA
06
12
3E
ED
E5
16
FF
E9
2D
0B
26
A7
F0
FD
04
FA
0E
EE
FD
0E
EA
36
F5
1F
EF
F1
03
11
DD
31
15
CD
F2
0A
F0
DF
F9
0B
DA
E5
F9
10
07
D1
F5
00
EC
16
1C
BD
10
14
ED
FE
F0
F2
ED
F0
D5
2C
E6
F4
AD
F2
F9
DA
37
F3
F6
EC
16
F3
DD
FF
DF
EE
1E
E7
0C
28
FB
E4
B5
02
10
1B
EA
9E
09
04
22
05
FB
C9
D4
DE
04
1F
DC
F8
F3
F2
16
FB
E5
05
12
FA
FE
14
EB
E8
DA
DD
21
07
E8
F3
F5
09
FC
EB
21
DD
07
08
33
04
DD
FD
0C
C3
F8
09
28
3C
B4
22
ED
DA
97
30
15
06
16
26
F2
FA
F1
FC
07
0C
1D
28
06
1C
DA
DE
33
18
EF
0A
0C
F5
FC
FC
E3
F9
F4
05
0D
DB
2C
18
1C
E9
01
11
06
16
1D
35
00
16
DE
1C
07
0D
FF
FD
FA
0D
01
3D
33
E1
02
E1
20
06
0E
B7
F5
F2
05
E2
F3
E0
E5
08
FB
ED
F1
D4
0F
05
BF
29
F4
D9
E5
E0
D3
D0
1A
0F
19
F3
1E
F2
EF
DE
D5
FB
EB
04
12
0C
06
02
FF
F5
CE
2F
EA
1B
E9
0F
FF
D1
F2
EE
F4
E6
03
14
1C
06
F7
0A
1C
FB
09
0F
F4
03
F5
FC
13
09
BD
EE
0D
02
D7
E3
E7
D5
12
EF
17
F3
05
15
FD
12
CA
1D
C4
2F
F2
F4
F5
F4
00
D5
CC
41
EE
2F
DA
F0
31
FA
E6
07
FD
D3
10
1E
24
3C
F5
3D
09
14
ED
CA
11
08
F6
EF
04
F3
26
18
05
D9
FC
FC
E1
EB
FB
EC
EF
FD
F0
F4
CA
02
FF
0F
E9
E7
F2
1E
34
EF
EF
EE
F7
CB
03
E3
F3
01
F8
E6
06
19
D5
11
F1
22
FE
EA
0F
06
E5
E2
21
03
FE
03
FB
1B
CF
2A
3A
DB
CF
DD
10
FA
15
20
FE
1D
FD
22
20
18
09
D0
06
2E
E0
09
14
E2
EB
FE
F4
17
EE
2A
FB
10
F3
32
05
17
1A
CD
EA
1E
00
09
F0
FD
D9
E8
D5
F9
FD
EE
F1
EF
32
1C
EA
34
EE
05
07
D3
E4
DE
E8
4D
2B
3B
25
F4
07
1A
09
FA
E1
04
2E
0C
DD
E2
FB
14
2A
E5
F9
FA
F3
E3
F6
F8
FE
0E
ED
01
E3
F8
23
21
F9
12
52
E3
FE
0F
0E
26
D4
1F
1C
1F
DC
15
17
FB
B8
16
B4
0E
AE
1D
C0
0B
F8
11
F7
03
04
E0
2E
DD
02
07
19
01
F8
E5
1A
09
03
FF
FD
01
19
08
0A
25
06
3C
E3
05
16
0C
0C
08
1C
04
08
D3
FC
FE
D1
10
F5
EB
F0
11
EB
03
F0
F0
E6
F6
15
C2
4E
ED
30
BA
02
2C
01
17
DC
1A
0B
2B
26
27
24
E9
1A
FD
0D
EF
1B
18
F3
EB
08
27
0F
0D
01
FC
12
04
FE
32
29
E7
C9
F1
DC
F5
11
01
DD
D0
05
01
1C
07
14
EF
F1
DA
EB
0F
CB
21
C2
12
E8
EE
DD
11
FF
26
E1
38
25
F2
0D
01
FC
F7
1C
00
0A
13
DD
F3
0E
06
14
FE
12
31
0D
0C
03
16
25
F7
E7
DF
FE
18
45
F2
DD
08
3B
DD
F3
06
2C
D9
24
EC
FD
00
13
E5
D4
13
0B
DF
25
D4
08
13
10
F4
F9
D3
C6
45
15
D3
FE
10
EF
D5
3A
E6
39
F5
16
16
F3
09
08
EF
36
1A
0D
EE
EB
21
E2
FE
29
E5
ED
03
F9
D4
E2
F9
E0
DB
FF
2F
E0
E1
E9
05
34
08
EC
FA
D4
FF
E7
23
D1
F7
02
E9
C4
C2
E7
F2
FC
12
F8
FE
FF
F0
DE
05
C9
29
D9
B1
FC
BF
C8
BE
E3
E5
31
2C
EA
EF
B9
F4
03
F8
1D
F2
F8
0E
26
EA
49
18
E9
16
F4
01
04
F4
06
0C
21
00
1A
F8
EF
D0
09
F3
AA
F5
11
FC
00
E1
EC
03
0F
E5
CB
3A
F1
DE
07
1A
36
06
C7
F5
EC
D2
E5
F1
F3
E9
1E
0B
DF
1B
06
03
11
CF
20
1E
F2
EA
FD
19
F8
C8
D5
ED
FD
E1
E7
18
0E
FF
24
0E
19
23
08
FA
1B
F5
47
F6
09
1D
EB
0B
FC
23
D7
24
DF
F4
E9
0A
20
CC
05
CC
08
13
E4
FF
18
0B
CB
FD
F5
DB
08
03
0A
3C
1E
04
18
0A
0E
F8
ED
C1
11
25
F5
1B
CB
14
D9
22
FD
21
16
08
27
19
28
F1
2B
03
D4
ED
F5
F5
E5
40
FE
39
FC
E8
F7
EB
C5
F6
EE
F9
F4
E2
F9
D7
D8
DC
1C
4F
FF
D3
29
EC
10
D4
FA
39
DE
E5
EB
2F
D6
15
F0
0B
E8
07
E8
09
29
03
FF
09
2E
05
DA
14
BE
F7
DE
06
FF
D4
1E
0E
03
DE
36
F2
0A
FC
05
C4
00
0D
07
FF
F2
E6
BF
D6
14
D3
1F
EA
E8
D5
01
01
1A
00
F1
01
24
E6
C2
0A
DD
EE
E5
E3
F5
CF
1A
DA
D1
12
3D
E4
2C
DE
B7
00
F7
F3
2B
07
3A
CF
CF
FB
E9
E7
21
E3
17
BE
0A
1A
00
17
C7
EB
FB
22
22
0C
FE
D7
FE
AC
06
F7
02
F9
05
0B
31
11
50
EE
E2
EA
03
1F
15
F7
DA
0E
16
DE
FA
EC
CC
ED
12
DD
2B
C8
E3
18
F2
30
24
F4
E9
05
F5
2A
FA
EE
14
F8
CD
F5
FE
0F
CE
E7
D1
F2
DB
EA
36
DC
FD
0B
F3
25
CE
FF
09
1C
24
09
F4
EE
C8
BA
F9
F2
EF
EC
0D
FD
1A
FA
E5
E9
E6
FB
08
12
04
BE
FF
0E
21
11
1A
F5
FF
23
F5
EC
B8
EB
1E
1F
F5
05
0C
13
E4
EF
D2
2E
DB
29
04
18
B0
F0
DF
F0
0B
FF
E8
F1
0C
E5
04
C8
03
11
F5
2C
13
27
07
FB
DD
D0
31
EC
F8
EF
1A
0C
17
FC
15
1F
FD
29
2E
E4
E4
DB
3F
19
28
03
F9
13
15
13
EE
E7
E7
01
27
28
F2
0C
DA
0E
07
02
29
EC
F7
1F
12
17
F1
DA
F3
E8
F0
E5
07
F3
01
FA
00
F6
E9
17
08
07
05
DE
11
E8
25
F3
23
EE
0C
16
EE
09
DD
DE
0E
1B
18
27
F4
12
13
FA
F6
FC
E6
0B
DF
16
10
FB
F3
DC
17
12
3E
0C
F5
E6
F3
F8
EE
EF
FC
1C
F4
EC
BC
E3
D6
18
E1
01
EB
E5
FE
04
25
BD
E4
D6
F4
E9
E2
F3
CF
AF
19
19
1B
EF
E8
16
11
E0
0A
08
04
CC
F0
FD
38
0C
16
F8
19
08
3C
C8
2B
EF
12
31
FE
ED
0F
09
DF
EE
F2
ED
F8
32
07
27
D7
0F
E5
E8
2A
04
02
32
FC
DC
23
19
18
07
0D
F9
10
03
11
D2
0C
E9
17
FA
14
0E
ED
E0
06
2B
D3
30
CF
04
3B
1D
E8
1A
F5
24
21
EE
20
D9
D9
13
13
20
05
13
05
FF
04
0C
14
F4
01
F5
F8
CD
11
D3
ED
D7
EA
FB
3B
FF
25
F1
11
14
00
1B
0F
11
10
D9
FD
D2
F9
ED
FC
09
1B
FF
01
E3
D2
2D
07
FB
20
0B
13
08
1D
E8
1A
ED
F8
ED
D3
20
09
FC
16
33
FC
20
D0
F3
D4
DD
FB
02
08
C2
13
15
F5
D6
E6
E2
12
F0
BA
F4
F7
D7
D8
ED
16
E8
24
2D
CD
F1
CE
0D
C2
2B
2F
10
26
F0
FC
12
E8
06
F8
3C
22
01
DE
12
19
D4
EE
1A
DB
3C
D3
FB
FD
FE
4F
FA
CA
BE
F7
2A
25
29
ED
CC
EF
13
B1
CE
F6
E5
E0
17
08
1A
F9
C5
DF
09
CA
C9
EE
0F
08
2C
09
16
F3
1D
EA
22
FC
1F
E4
10
F1
F8
E3
E0
2B
13
EE
F5
1B
D2
F1
0A
DF
E3
E6
14
B7
06
F1
CF
25
14
EA
F7
F8
1A
01
DD
32
E4
EF
E9
12
08
1C
F0
EA
B8
0A
F4
06
FA
CB
0C
0D
1F
EC
D5
D9
52
F2
1A
39
D4
E1
02
F1
10
F1
1F
12
09
02
21
F1
13
01
FB
11
E3
1A
FA
E9
DE
F7
0A
F1
F3
DA
1C
2D
FD
F9
EB
FD
F1
25
45
D9
00
04
04
D3
1A
F8
3D
EC
2A
A2
00
10
DE
EF
EF
F1
03
E3
DC
D6
BF
29
0C
ED
11
1C
07
F5
EA
13
04
1F
DF
12
EC
BD
2D
0F
F7
F3
EB
FF
18
DC
FC
11
F2
D0
1E
07
0B
C7
1B
F0
F5
35
CD
18
0E
15
DF
05
F0
E0
19
EE
05
AF
FF
E7
FF
0B
08
FB
22
FE
36
EE
2F
DC
07
F4
D5
1D
CD
A4
DA
F6
D8
E2
DE
EA
CC
0C
04
D5
10
F3
0D
1E
09
01
09
F3
EF
0C
F1
26
0C
0B
04
37
DB
13
0F
01
23
EF
17
C0
F3
06
39
F8
F0
CB
F5
0C
FB
FF
FA
F0
2A
FD
15
C2
F6
A7
EF
35
F4
04
07
21
F2
FB
FE
F6
1C
ED
F0
14
11
18
02
D6
07
16
DD
F9
0A
33
FF
F8
11
E4
F0
1F
0D
ED
E6
E4
FA
03
41
C2
EB
EC
22
D9
24
F6
06
07
03
E6
EA
DC
00
07
F5
FC
08
0E
39
16
FB
06
06
D9
E0
07
1E
0B
1D
EB
FF
FD
C9
F6
F5
FD
F5
1F
D3
ED
17
F0
09
05
DD
01
C8
16
11
FB
ED
E4
07
EC
E9
05
14
08
16
0A
E9
DD
EC
F6
03
06
00
D5
05
E9
C4
E6
0C
E7
0E
F2
E9
FB
E0
2D
0B
DA
CA
0D
F4
39
E1
10
06
0C
FF
F3
1D
D6
11
1D
08
03
25
0A
F9
26
05
2A
FB
1B
D8
1D
E5
53
02
36
17
0C
F4
1A
30
FE
E0
06
DD
D5
25
0D
EB
11
0B
E5
DD
EA
FF
EB
FF
E5
00
B7
F9
F1
F6
12
FA
20
DB
F6
D3
B7
D9
D8
07
E7
E4
00
35
15
E7
F8
EA
C4
16
07
F0
0F
CA
14
F9
21
FB
18
CE
DD
07
F4
EE
0E
F7
FE
F6
E2
0B
FB
F4
F1
F0
49
F1
0E
06
F2
12
32
09
0C
DE
F5
E6
10
12
11
15
EA
DC
22
11
03
EF
34
0E
08
DA
EF
F3
F7
1A
07
17
12
F2
06
11
EA
0F
D9
DC
03
23
FE
B3
08
09
D1
CF
1A
F6
E9
03
01
F2
17
22
31
26
1E
06
03
2B
00
F3
2E
DA
0F
26
1F
DB
08
10
0C
DB
14
FE
04
EF
1C
08
F8
1A
10
DB
F0
EE
13
13
0E
F9
31
0D
EA
EF
C1
10
06
FB
0D
F2
FC
08
07
DD
1B
F5
2E
F0
27
06
03
E8
E7
2F
F9
25
58
D7
D0
C6
16
0F
CB
01
22
C3
4D
13
DE
0B
F7
EC
ED
23
01
03
FE
09
04
DD
FC
E7
F9
ED
EC
14
FA
03
F6
2A
12
16
25
C8
C0
EA
03
F6
DD
F8
E8
F7
09
06
0C
1B
19
15
DE
F1
1F
FD
F7
1F
E1
0F
FC
E0
E3
F0
D2
E5
12
EC
05
B6
E2
E6
2D
08
2C
13
5A
1C
D9
ED
04
04
F3
29
04
1B
C2
0E
F9
D6
CE
1D
E2
EC
02
17
D4
15
F5
CC
38
F7
DC
04
23
F6
F5
0F
18
32
0C
CB
08
C4
FB
09
F0
16
F7
DF
04
15
E5
1F
BB
48
00
21
04
09
F1
1B
13
FF
07
DC
1B
05
11
D2
08
F6
DE
EE
07
EF
CB
09
E7
F4
2D
E3
FC
21
32
01
F7
2A
04
FA
E7
0E
FC
EF
D6
DE
EE
0D
DF
15
1B
16
09
22
F1
1A
E4
13
F5
D1
F5
DC
F4
FB
FE
08
EF
FA
F3
11
D0
12
F1
07
01
09
00
D8
FE
05
04
FE
E7
01
FF
05
0C
03
E9
14
0D
B8
EA
DA
B4
FF
EB
07
FE
37
14
13
EF
E0
FF
0D
15
F2
EF
18
FF
DF
DE
FD
E3
28
10
00
EC
F6
13
C4
EB
07
ED
1F
F7
E8
23
D2
10
30
20
E3
12
F8
E8
E8
E7
2F
04
D2
D7
E0
0D
02
17
FA
EE
05
1D
02
18
19
11
1A
F2
36
FD
02
1B
27
30
06
36
EF
D2
0F
26
EF
DA
E0
0E
F1
F8
0F
04
1B
DD
17
2C
11
12
20
EA
FB
F8
E9
00
DC
10
10
15
4A
DA
0F
DE
EA
E8
D5
0B
EB
F6
FC
22
0D
1D
FE
ED
21
F9
0D
1A
1F
1C
E8
F6
FD
05
16
17
04
EB
F9
E8
F7
0A
27
17
F5
03
27
B4
F8
00
FD
F3
E6
00
F3
02
14
E2
1F
C0
02
E8
E8
E8
E9
20
B4
EB
FE
F7
E6
EB
0E
CD
F7
F2
26
01
ED
FE
F4
2D
09
15
EA
F0
E3
12
30
F4
04
33
E4
ED
D8
F2
E5
E4
EF
2C
F7
F4
10
2B
00
CA
03
B8
02
D7
F9
03
FE
FC
E2
13
EB
DB
F5
F8
31
F3
D4
CB
C8
06
0D
0B
09
E6
D7
08
06
E8
1F
D5
DB
FF
FD
ED
F0
D1
E4
32
DD
18
08
24
FE
FC
0B
28
08
2E
F9
F4
43
E3
05
F0
E0
D0
E3
E1
C8
F1
E7
E3
E3
2A
E3
FF
E7
E4
ED
DF
E7
F2
2D
14
0D
EE
EA
CA
34
24
15
C5
F4
00
F0
22
21
FC
FE
DF
2B
4D
FB
28
05
E2
1D
03
CC
FE
0B
F7
F4
2E
04
F7
14
E5
FA
35
21
16
0A
D6
30
12
E4
F8
44
2C
29
0B
07
17
D6
10
E7
DA
1C
EB
FD
B2
00
01
ED
F3
21
D5
F7
0B
DD
15
1B
0E
E7
30
D7
F3
F8
E6
05
22
E2
04
09
CB
25
02
2C
F2
DC
04
F2
1D
3E
E7
47
E1
FF
20
F5
EB
1F
F3
E8
16
39
FC
17
0C
FE
F6
2D
0D
EA
2C
21
FE
F5
F4
E2
D8
2D
E7
EB
FD
DE
06
FC
0E
FC
14
3E
D1
D5
F3
1E
0F
FF
23
F5
F4
E7
1B
06
C8
00
1C
0F
F4
FF
21
F7
09
14
09
16
D9
2F
36
D4
CC
DC
E5
01
FE
17
00
EF
34
08
0E
E6
E2
F8
C2
FA
F7
06
FA
DC
FA
07
E5
16
12
CC
DB
C9
FA
DF
CA
CE
F3
00
D6
EA
1D
EB
CB
F4
05
E4
13
EB
12
D2
30
28
D0
1C
CE
FF
09
0A
F0
04
C1
F7
27
DC
F8
FE
07
FF
1D
13
F4
D9
D9
4C
0C
FB
F5
F5
F8
00
33
FB
F4
EE
EF
E7
EF
05
FF
CD
13
1A
D1
DA
F8
F0
D9
EC
14
E6
FC
0D
F8
0B
0E
23
16
17
03
E2
1F
13
00
36
38
EB
1E
02
20
08
17
DF
EB
17
2B
E4
F8
06
FD
00
D7
DA
0F
FA
F2
E0
1B
3F
D8
15
00
E8
E8
24
10
28
F0
22
E9
ED
28
E4
FE
D8
F7
EF
F8
F6
F5
F1
16
14
23
28
04
1E
EB
24
2B
27
13
D5
CE
F9
08
47
02
ED
C4
E8
FE
EF
F2
21
EB
11
F7
F4
10
F5
37
1E
0E
FC
26
C8
16
A2
CF
44
F0
2C
22
04
DF
12
03
F0
19
06
C7
27
DA
16
ED
05
11
04
F6
E7
EE
21
F0
F7
D4
12
12
FD
E5
E4
04
0C
19
40
FA
EC
E7
1E
F4
BE
FE
04
F7
EB
FF
14
E6
EE
2A
D1
ED
CE
2B
02
23
09
34
01
02
34
F9
13
D0
DD
03
25
E8
30
16
E7
C2
E5
F7
09
F5
D7
29
EB
0E
19
08
EE
D2
0C
DD
11
F4
22
D4
F2
22
03
D5
10
13
EE
04
FA
BD
F9
F0
32
E8
33
36
01
D7
1D
07
98
2A
D8
22
00
E5
E3
DE
FB
D9
DD
0E
E6
F2
1A
06
0F
FB
19
D6
00
11
0F
DE
04
DB
F1
F5
CA
0E
F3
E9
03
D3
CA
00
2F
DB
FA
22
F4
1B
47
11
DC
32
B9
52
F0
0F
0E
02
D3
CD
0A
0E
F8
02
EE
F3
F4
52
F9
15
E1
F4
28
11
E4
02
E1
F9
3B
FA
33
06
21
DE
F8
06
FE
FC
FE
FA
F8
DD
DA
4E
F4
E7
0C
04
24
F6
D5
16
44
D1
42
FA
EE
1A
DB
E4
00
05
1C
E8
EE
AE
DD
FF
1A
CC
EC
03
E1
15
02
03
F4
17
0F
16
F6
24
D4
E9
3E
06
16
0F
21
17
D0
05
D8
0F
E7
09
27
38
C5
04
08
F4
27
01
09
CF
F7
E1
1A
1B
45
EE
04
00
BF
20
2B
DC
F1
F2
C8
11
06
E8
FD
EF
09
FB
B6
1A
1C
F0
FF
E8
E5
F0
F8
23
F9
D3
DB
F0
FE
0C
01
00
DC
F5
FB
F7
FC
E5
F3
2C
10
CD
F0
05
03
19
04
FE
10
DE
E7
EF
FA
E4
DE
F6
06
0D
11
F6
F1
E4
FE
33
CC
D9
08
06
E3
F6
14
08
09
DC
DE
FF
24
1F
11
F2
DE
EB
F8
F8
ED
14
0A
E5
F5
EF
0D
28
08
F0
EE
01
D3
24
ED
D8
38
13
F3
08
F4
E9
D8
18
10
E3
04
EF
FE
03
DD
27
02
FA
E3
1C
EB
00
E8
21
F4
FD
D9
F3
1D
2C
0D
FB
0E
E6
2C
E9
08
2E
EF
27
DF
E7
08
F6
04
F1
24
C9
04
0C
15
3C
FD
12
2C
35
EE
0B
E5
E4
1A
14
CE
FA
04
F7
C5
FE
DD
12
0D
E8
E9
06
EF
CB
37
0F
08
F0
CB
13
F1
BF
F1
03
1C
D7
0B
EE
D8
18
EC
F6
22
15
17
10
0A
43
27
06
F5
DD
1D
06
E6
EC
05
EE
EF
1B
33
EB
ED
23
FC
EF
06
F1
23
0A
F5
15
00
E2
F1
E1
17
0E
10
FF
D7
0C
E0
F6
14
F7
02
E3
F5
CC
FB
01
D6
23
22
0A
E7
F1
37
0E
FA
DC
28
13
1E
00
D2
EA
B8
EC
F7
0A
D0
09
07
FB
CB
ED
C3
0E
F4
F7
EB
F5
15
01
BE
E6
CE
F2
09
E4
07
18
FD
FD
FC
E7
03
E8
4C
F5
F4
FD
02
1A
13
0C
18
FC
F5
ED
21
E2
F3
F8
EE
03
00
0C
FA
FB
12
15
19
09
2D
F4
EF
17
CF
EE
FA
0F
1C
EC
0B
E4