5C
E7
F4
19
1C
D1
C8
F1
FD
23
23
0B
26
BB
FA
14
EB
26
E5
E9
B2
01
0C
BD
DE
43
E6
DC
02
DD
DC
EA
B8
05
31
CC
EF
E7
FA
C6
D4
E9
F8
E7
10
DF
0B
0D
20
24
F4
66
FE
C7
0F
37
13
DB
D3
0D
BD
01
3F
F4
20
F9
3C
D2
21
E4
3C
E5
16
FA
0F
FF
06
1F
1A
F9
29
19
38
AA
15
F9
F3
D7
0D
E4
25
C4
ED
CA
C6
0B
0E
CD
81
E8
E7
BC
ED
B0
E2
3B
0B
15
00
1F
00
EF
05
CD
0D
FA
0F
19
C7
0B
E8
2E
59
FB
12
D6
FC
D9